{
  "version": "1.0",
  "truncation": null,
  "padding": null,
  "added_tokens": [
    {
      "id": 0,
      "content": "<pad>",
      "single_word": false,
      "lstrip": false,
      "rstrip": false,
      "normalized": false,
      "special": true
    },
    {
      "id": 1,
      "content": "<bos>",
      "single_word": false,
      "lstrip": false,
      "rstrip": false,
      "normalized": false,
      "special": true
    },
    {
      "id": 2,
      "content": "<eos>",
      "single_word": false,
      "lstrip": false,
      "rstrip": false,
      "normalized": false,
      "special": true
    },
    {
      "id": 3,
      "content": "<unk>",
      "single_word": false,
      "lstrip": false,
      "rstrip": false,
      "normalized": false,
      "special": true
    }
  ],
  "normalizer": null,
  "pre_tokenizer": {
    "type": "Whitespace"
  },
  "post_processor": null,
  "decoder": null,
  "model": {
    "type": "BPE",
    "dropout": null,
    "unk_token": "<unk>",
    "continuing_subword_prefix": null,
    "end_of_word_suffix": null,
    "fuse_unk": false,
    "byte_fallback": false,
    "ignore_merges": false,
    "vocab": {
      "<pad>": 0,
      "<bos>": 1,
      "<eos>": 2,
      "<unk>": 3,
      "\u0002": 4,
      "\u0003": 5,
      "\u001b": 6,
      "\u001f": 7,
      "!": 8,
      "\"": 9,
      "#": 10,
      "$": 11,
      "%": 12,
      "&": 13,
      "'": 14,
      "(": 15,
      ")": 16,
      "*": 17,
      "+": 18,
      ",": 19,
      "-": 20,
      ".": 21,
      "/": 22,
      "0": 23,
      "1": 24,
      "2": 25,
      "3": 26,
      "4": 27,
      "5": 28,
      "6": 29,
      "7": 30,
      "8": 31,
      "9": 32,
      ":": 33,
      ";": 34,
      "<": 35,
      "=": 36,
      ">": 37,
      "?": 38,
      "@": 39,
      "A": 40,
      "B": 41,
      "C": 42,
      "D": 43,
      "E": 44,
      "F": 45,
      "G": 46,
      "H": 47,
      "I": 48,
      "J": 49,
      "K": 50,
      "L": 51,
      "M": 52,
      "N": 53,
      "O": 54,
      "P": 55,
      "Q": 56,
      "R": 57,
      "S": 58,
      "T": 59,
      "U": 60,
      "V": 61,
      "W": 62,
      "X": 63,
      "Y": 64,
      "Z": 65,
      "[": 66,
      "\\": 67,
      "]": 68,
      "^": 69,
      "_": 70,
      "`": 71,
      "a": 72,
      "b": 73,
      "c": 74,
      "d": 75,
      "e": 76,
      "f": 77,
      "g": 78,
      "h": 79,
      "i": 80,
      "j": 81,
      "k": 82,
      "l": 83,
      "m": 84,
      "n": 85,
      "o": 86,
      "p": 87,
      "q": 88,
      "r": 89,
      "s": 90,
      "t": 91,
      "u": 92,
      "v": 93,
      "w": 94,
      "x": 95,
      "y": 96,
      "z": 97,
      "{": 98,
      "|": 99,
      "}": 100,
      "~": 101,
      "¡": 102,
      "£": 103,
      "¤": 104,
      "§": 105,
      "¨": 106,
      "©": 107,
      "«": 108,
      "®": 109,
      "¯": 110,
      "°": 111,
      "±": 112,
      "²": 113,
      "³": 114,
      "´": 115,
      "µ": 116,
      "¶": 117,
      "·": 118,
      "¹": 119,
      "º": 120,
      "»": 121,
      "¼": 122,
      "½": 123,
      "¾": 124,
      "À": 125,
      "Á": 126,
      "Â": 127,
      "Ã": 128,
      "Ä": 129,
      "Å": 130,
      "Æ": 131,
      "Ç": 132,
      "È": 133,
      "É": 134,
      "Ê": 135,
      "Ë": 136,
      "Ì": 137,
      "Í": 138,
      "Î": 139,
      "Ï": 140,
      "Ð": 141,
      "Ñ": 142,
      "Ò": 143,
      "Ó": 144,
      "Ô": 145,
      "Õ": 146,
      "Ö": 147,
      "×": 148,
      "Ø": 149,
      "Ù": 150,
      "Ú": 151,
      "Û": 152,
      "Ü": 153,
      "Ý": 154,
      "Þ": 155,
      "ß": 156,
      "à": 157,
      "á": 158,
      "â": 159,
      "ã": 160,
      "ä": 161,
      "å": 162,
      "æ": 163,
      "ç": 164,
      "è": 165,
      "é": 166,
      "ê": 167,
      "ë": 168,
      "ì": 169,
      "í": 170,
      "î": 171,
      "ï": 172,
      "ð": 173,
      "ñ": 174,
      "ò": 175,
      "ó": 176,
      "ô": 177,
      "õ": 178,
      "ö": 179,
      "ø": 180,
      "ù": 181,
      "ú": 182,
      "û": 183,
      "ü": 184,
      "ý": 185,
      "þ": 186,
      "ÿ": 187,
      "Ā": 188,
      "ā": 189,
      "Ă": 190,
      "ă": 191,
      "Ą": 192,
      "ą": 193,
      "Ć": 194,
      "ć": 195,
      "Ĉ": 196,
      "ĉ": 197,
      "Ċ": 198,
      "ċ": 199,
      "Č": 200,
      "č": 201,
      "Ď": 202,
      "ď": 203,
      "Đ": 204,
      "đ": 205,
      "Ē": 206,
      "ē": 207,
      "Ĕ": 208,
      "ĕ": 209,
      "Ė": 210,
      "ė": 211,
      "Ę": 212,
      "ę": 213,
      "Ě": 214,
      "ě": 215,
      "Ĝ": 216,
      "ĝ": 217,
      "Ğ": 218,
      "ğ": 219,
      "Ġ": 220,
      "ġ": 221,
      "Ģ": 222,
      "ģ": 223,
      "Ĥ": 224,
      "ĥ": 225,
      "Ħ": 226,
      "ħ": 227,
      "Ĩ": 228,
      "ĩ": 229,
      "Ī": 230,
      "ī": 231,
      "Ĭ": 232,
      "ĭ": 233,
      "Į": 234,
      "į": 235,
      "İ": 236,
      "ı": 237,
      "Ĵ": 238,
      "ĵ": 239,
      "Ķ": 240,
      "ķ": 241,
      "ĸ": 242,
      "Ĺ": 243,
      "ĺ": 244,
      "Ļ": 245,
      "ļ": 246,
      "Ľ": 247,
      "ľ": 248,
      "Ŀ": 249,
      "ŀ": 250,
      "Ł": 251,
      "ł": 252,
      "Ń": 253,
      "ń": 254,
      "Ņ": 255,
      "ņ": 256,
      "Ň": 257,
      "ň": 258,
      "ŉ": 259,
      "Ŋ": 260,
      "ŋ": 261,
      "Ō": 262,
      "ō": 263,
      "Ŏ": 264,
      "ŏ": 265,
      "Ő": 266,
      "ő": 267,
      "Œ": 268,
      "œ": 269,
      "Ŕ": 270,
      "ŕ": 271,
      "Ŗ": 272,
      "ŗ": 273,
      "Ř": 274,
      "ř": 275,
      "Ś": 276,
      "ś": 277,
      "Ŝ": 278,
      "ŝ": 279,
      "Ş": 280,
      "ş": 281,
      "Š": 282,
      "š": 283,
      "Ţ": 284,
      "ţ": 285,
      "Ť": 286,
      "ť": 287,
      "Ŧ": 288,
      "ŧ": 289,
      "Ũ": 290,
      "ũ": 291,
      "Ū": 292,
      "ū": 293,
      "Ŭ": 294,
      "ŭ": 295,
      "Ů": 296,
      "ů": 297,
      "Ű": 298,
      "ű": 299,
      "Ų": 300,
      "ų": 301,
      "Ŵ": 302,
      "ŵ": 303,
      "Ŷ": 304,
      "ŷ": 305,
      "Ÿ": 306,
      "Ź": 307,
      "ź": 308,
      "Ż": 309,
      "ż": 310,
      "Ž": 311,
      "ž": 312,
      "ſ": 313,
      "ƀ": 314,
      "Ƃ": 315,
      "ƃ": 316,
      "Ƅ": 317,
      "ƅ": 318,
      "Ƈ": 319,
      "ƈ": 320,
      "Ɖ": 321,
      "Ɗ": 322,
      "Ɛ": 323,
      "Ƒ": 324,
      "ƒ": 325,
      "Ɠ": 326,
      "Ɣ": 327,
      "Ɩ": 328,
      "Ɨ": 329,
      "Ƙ": 330,
      "ƙ": 331,
      "ƚ": 332,
      "Ɲ": 333,
      "ƞ": 334,
      "Ɵ": 335,
      "Ơ": 336,
      "ơ": 337,
      "Ƥ": 338,
      "Ʀ": 339,
      "ƫ": 340,
      "Ƭ": 341,
      "ƭ": 342,
      "Ʈ": 343,
      "Ư": 344,
      "ư": 345,
      "Ʊ": 346,
      "Ʋ": 347,
      "Ƴ": 348,
      "ƴ": 349,
      "Ƶ": 350,
      "ƶ": 351,
      "ƿ": 352,
      "Ǎ": 353,
      "ǎ": 354,
      "Ǐ": 355,
      "ǐ": 356,
      "Ǒ": 357,
      "ǒ": 358,
      "Ǔ": 359,
      "ǔ": 360,
      "Ǖ": 361,
      "ǖ": 362,
      "Ǘ": 363,
      "ǘ": 364,
      "Ǚ": 365,
      "ǚ": 366,
      "Ǜ": 367,
      "ǜ": 368,
      "ǝ": 369,
      "Ǟ": 370,
      "ǟ": 371,
      "Ǡ": 372,
      "ǡ": 373,
      "Ǣ": 374,
      "ǣ": 375,
      "Ǥ": 376,
      "ǥ": 377,
      "Ǧ": 378,
      "ǧ": 379,
      "Ǩ": 380,
      "ǩ": 381,
      "Ǫ": 382,
      "ǫ": 383,
      "Ǭ": 384,
      "ǭ": 385,
      "ǰ": 386,
      "Ǵ": 387,
      "ǵ": 388,
      "Ƿ": 389,
      "Ǹ": 390,
      "ǹ": 391,
      "Ǻ": 392,
      "ǻ": 393,
      "Ǽ": 394,
      "ǽ": 395,
      "Ǿ": 396,
      "ǿ": 397,
      "Ȁ": 398,
      "ȁ": 399,
      "Ȃ": 400,
      "ȃ": 401,
      "Ȅ": 402,
      "ȅ": 403,
      "Ȇ": 404,
      "ȇ": 405,
      "Ȉ": 406,
      "ȉ": 407,
      "Ȋ": 408,
      "ȋ": 409,
      "Ȍ": 410,
      "ȍ": 411,
      "Ȏ": 412,
      "ȏ": 413,
      "Ȑ": 414,
      "ȑ": 415,
      "Ȓ": 416,
      "ȓ": 417,
      "Ȕ": 418,
      "ȕ": 419,
      "Ȗ": 420,
      "ȗ": 421,
      "Ș": 422,
      "ș": 423,
      "Ț": 424,
      "ț": 425,
      "Ȟ": 426,
      "ȟ": 427,
      "Ȥ": 428,
      "ȥ": 429,
      "Ȧ": 430,
      "ȧ": 431,
      "Ȩ": 432,
      "ȩ": 433,
      "Ȫ": 434,
      "ȫ": 435,
      "Ȭ": 436,
      "ȭ": 437,
      "Ȯ": 438,
      "ȯ": 439,
      "Ȱ": 440,
      "ȱ": 441,
      "Ȳ": 442,
      "ȳ": 443,
      "ɹ": 444,
      "ʞ": 445,
      "ʟ": 446,
      "ˈ": 447,
      "̀": 448,
      "̂": 449,
      "̄": 450,
      "Ά": 451,
      "Έ": 452,
      "Ή": 453,
      "Ί": 454,
      "Ό": 455,
      "Ύ": 456,
      "Ώ": 457,
      "ΐ": 458,
      "Α": 459,
      "Γ": 460,
      "Δ": 461,
      "Ε": 462,
      "Η": 463,
      "Ι": 464,
      "Κ": 465,
      "Μ": 466,
      "Ο": 467,
      "Π": 468,
      "Σ": 469,
      "Υ": 470,
      "Ω": 471,
      "Ϊ": 472,
      "ά": 473,
      "έ": 474,
      "ή": 475,
      "ί": 476,
      "ΰ": 477,
      "α": 478,
      "β": 479,
      "γ": 480,
      "δ": 481,
      "ε": 482,
      "ζ": 483,
      "η": 484,
      "θ": 485,
      "ι": 486,
      "κ": 487,
      "λ": 488,
      "μ": 489,
      "ν": 490,
      "ξ": 491,
      "ο": 492,
      "π": 493,
      "ρ": 494,
      "ς": 495,
      "σ": 496,
      "τ": 497,
      "υ": 498,
      "φ": 499,
      "χ": 500,
      "ψ": 501,
      "ω": 502,
      "ϊ": 503,
      "ϋ": 504,
      "ό": 505,
      "ύ": 506,
      "ώ": 507,
      "Ё": 508,
      "Є": 509,
      "А": 510,
      "Б": 511,
      "В": 512,
      "Г": 513,
      "Д": 514,
      "Е": 515,
      "Ж": 516,
      "З": 517,
      "И": 518,
      "Й": 519,
      "К": 520,
      "Л": 521,
      "М": 522,
      "Н": 523,
      "О": 524,
      "П": 525,
      "Р": 526,
      "С": 527,
      "У": 528,
      "Ф": 529,
      "Щ": 530,
      "Ь": 531,
      "Я": 532,
      "а": 533,
      "б": 534,
      "в": 535,
      "г": 536,
      "д": 537,
      "е": 538,
      "ж": 539,
      "з": 540,
      "и": 541,
      "й": 542,
      "к": 543,
      "л": 544,
      "м": 545,
      "н": 546,
      "о": 547,
      "п": 548,
      "р": 549,
      "с": 550,
      "т": 551,
      "у": 552,
      "ф": 553,
      "х": 554,
      "ц": 555,
      "ч": 556,
      "ш": 557,
      "щ": 558,
      "ъ": 559,
      "ы": 560,
      "ь": 561,
      "э": 562,
      "ю": 563,
      "я": 564,
      "ё": 565,
      "є": 566,
      "і": 567,
      "ק": 568,
      "،": 569,
      "أ": 570,
      "إ": 571,
      "ئ": 572,
      "ا": 573,
      "ب": 574,
      "ة": 575,
      "ت": 576,
      "ث": 577,
      "ج": 578,
      "ح": 579,
      "خ": 580,
      "د": 581,
      "ر": 582,
      "ز": 583,
      "س": 584,
      "ش": 585,
      "ط": 586,
      "ع": 587,
      "ق": 588,
      "ك": 589,
      "ل": 590,
      "م": 591,
      "ن": 592,
      "ه": 593,
      "و": 594,
      "ي": 595,
      "घ": 596,
      "ड": 597,
      "़": 598,
      "ा": 599,
      "ो": 600,
      "ந": 601,
      "ி": 602,
      "ก": 603,
      "ค": 604,
      "ง": 605,
      "จ": 606,
      "ฉ": 607,
      "ช": 608,
      "ซ": 609,
      "ณ": 610,
      "ด": 611,
      "ต": 612,
      "ท": 613,
      "น": 614,
      "บ": 615,
      "ฝ": 616,
      "ย": 617,
      "ร": 618,
      "ฤ": 619,
      "ล": 620,
      "ว": 621,
      "ษ": 622,
      "ส": 623,
      "ห": 624,
      "อ": 625,
      "ะ": 626,
      "ั": 627,
      "า": 628,
      "ิ": 629,
      "ี": 630,
      "ู": 631,
      "เ": 632,
      "่": 633,
      "้": 634,
      "์": 635,
      "๗": 636,
      "ນ": 637,
      "ອ": 638,
      "ຮ": 639,
      "ື": 640,
      "ເ": 641,
      "ᚠ": 642,
      "ᚢ": 643,
      "ᚣ": 644,
      "ᚦ": 645,
      "ᚩ": 646,
      "ᚪ": 647,
      "ᚫ": 648,
      "ᚱ": 649,
      "ᚳ": 650,
      "ᚷ": 651,
      "ᚹ": 652,
      "ᚻ": 653,
      "ᚾ": 654,
      "ᛁ": 655,
      "ᛋ": 656,
      "ᛏ": 657,
      "ᛖ": 658,
      "ᛗ": 659,
      "ᛚ": 660,
      "ᛝ": 661,
      "ᛞ": 662,
      "ᛠ": 663,
      "ᴅ": 664,
      "ᴇ": 665,
      "ᴏ": 666,
      "ᴘ": 667,
      "Ḁ": 668,
      "ḁ": 669,
      "Ḃ": 670,
      "ḃ": 671,
      "Ḅ": 672,
      "ḅ": 673,
      "Ḇ": 674,
      "ḇ": 675,
      "Ḉ": 676,
      "ḉ": 677,
      "Ḋ": 678,
      "ḋ": 679,
      "Ḍ": 680,
      "ḍ": 681,
      "Ḏ": 682,
      "ḏ": 683,
      "Ḑ": 684,
      "ḑ": 685,
      "Ḓ": 686,
      "ḓ": 687,
      "Ḕ": 688,
      "ḕ": 689,
      "Ḗ": 690,
      "ḗ": 691,
      "Ḙ": 692,
      "ḙ": 693,
      "Ḛ": 694,
      "ḛ": 695,
      "Ḝ": 696,
      "ḝ": 697,
      "Ḟ": 698,
      "ḟ": 699,
      "Ḡ": 700,
      "ḡ": 701,
      "Ḣ": 702,
      "ḣ": 703,
      "Ḥ": 704,
      "ḥ": 705,
      "Ḧ": 706,
      "ḧ": 707,
      "Ḩ": 708,
      "ḩ": 709,
      "Ḫ": 710,
      "ḫ": 711,
      "Ḭ": 712,
      "ḭ": 713,
      "Ḯ": 714,
      "ḯ": 715,
      "Ḱ": 716,
      "ḱ": 717,
      "Ḳ": 718,
      "ḳ": 719,
      "Ḵ": 720,
      "ḵ": 721,
      "Ḷ": 722,
      "ḷ": 723,
      "Ḹ": 724,
      "ḹ": 725,
      "Ḻ": 726,
      "ḻ": 727,
      "Ḽ": 728,
      "ḽ": 729,
      "Ḿ": 730,
      "ḿ": 731,
      "Ṁ": 732,
      "ṁ": 733,
      "Ṃ": 734,
      "ṃ": 735,
      "Ṅ": 736,
      "ṅ": 737,
      "Ṇ": 738,
      "ṇ": 739,
      "Ṉ": 740,
      "ṉ": 741,
      "Ṋ": 742,
      "ṋ": 743,
      "Ṍ": 744,
      "ṍ": 745,
      "Ṏ": 746,
      "ṏ": 747,
      "Ṑ": 748,
      "ṑ": 749,
      "Ṓ": 750,
      "ṓ": 751,
      "Ṕ": 752,
      "ṕ": 753,
      "Ṗ": 754,
      "ṗ": 755,
      "Ṙ": 756,
      "ṙ": 757,
      "Ṛ": 758,
      "ṛ": 759,
      "Ṝ": 760,
      "ṝ": 761,
      "Ṟ": 762,
      "ṟ": 763,
      "Ṡ": 764,
      "ṡ": 765,
      "Ṣ": 766,
      "ṣ": 767,
      "Ṥ": 768,
      "ṥ": 769,
      "Ṧ": 770,
      "ṧ": 771,
      "Ṩ": 772,
      "ṩ": 773,
      "Ṫ": 774,
      "ṫ": 775,
      "Ṭ": 776,
      "ṭ": 777,
      "Ṯ": 778,
      "ṯ": 779,
      "Ṱ": 780,
      "ṱ": 781,
      "Ṳ": 782,
      "ṳ": 783,
      "Ṵ": 784,
      "ṵ": 785,
      "Ṷ": 786,
      "ṷ": 787,
      "Ṹ": 788,
      "ṹ": 789,
      "Ṻ": 790,
      "ṻ": 791,
      "Ṽ": 792,
      "ṽ": 793,
      "Ṿ": 794,
      "ṿ": 795,
      "Ẁ": 796,
      "ẁ": 797,
      "Ẃ": 798,
      "ẃ": 799,
      "Ẅ": 800,
      "ẅ": 801,
      "Ẇ": 802,
      "ẇ": 803,
      "Ẉ": 804,
      "ẉ": 805,
      "Ẋ": 806,
      "ẋ": 807,
      "Ẍ": 808,
      "ẍ": 809,
      "Ẏ": 810,
      "ẏ": 811,
      "Ẑ": 812,
      "ẑ": 813,
      "Ẓ": 814,
      "ẓ": 815,
      "Ẕ": 816,
      "ẕ": 817,
      "ẖ": 818,
      "ẗ": 819,
      "ẘ": 820,
      "ẙ": 821,
      "ẚ": 822,
      "ẛ": 823,
      "Ạ": 824,
      "ạ": 825,
      "Ả": 826,
      "ả": 827,
      "Ấ": 828,
      "ấ": 829,
      "Ầ": 830,
      "ầ": 831,
      "Ẩ": 832,
      "ẩ": 833,
      "Ẫ": 834,
      "ẫ": 835,
      "Ậ": 836,
      "ậ": 837,
      "Ắ": 838,
      "ắ": 839,
      "Ằ": 840,
      "ằ": 841,
      "Ẳ": 842,
      "ẳ": 843,
      "Ẵ": 844,
      "ẵ": 845,
      "Ặ": 846,
      "ặ": 847,
      "Ẹ": 848,
      "ẹ": 849,
      "Ẻ": 850,
      "ẻ": 851,
      "Ẽ": 852,
      "ẽ": 853,
      "Ế": 854,
      "ế": 855,
      "Ề": 856,
      "ề": 857,
      "Ể": 858,
      "ể": 859,
      "Ễ": 860,
      "ễ": 861,
      "Ệ": 862,
      "ệ": 863,
      "Ỉ": 864,
      "ỉ": 865,
      "Ị": 866,
      "ị": 867,
      "Ọ": 868,
      "ọ": 869,
      "Ỏ": 870,
      "ỏ": 871,
      "Ố": 872,
      "ố": 873,
      "Ồ": 874,
      "ồ": 875,
      "Ổ": 876,
      "ổ": 877,
      "Ỗ": 878,
      "ỗ": 879,
      "Ộ": 880,
      "ộ": 881,
      "Ớ": 882,
      "ớ": 883,
      "Ờ": 884,
      "ờ": 885,
      "Ở": 886,
      "ở": 887,
      "Ỡ": 888,
      "ỡ": 889,
      "Ợ": 890,
      "ợ": 891,
      "Ụ": 892,
      "ụ": 893,
      "Ủ": 894,
      "ủ": 895,
      "Ứ": 896,
      "ứ": 897,
      "Ừ": 898,
      "ừ": 899,
      "Ử": 900,
      "ử": 901,
      "Ữ": 902,
      "ữ": 903,
      "Ự": 904,
      "ự": 905,
      "Ỳ": 906,
      "ỳ": 907,
      "Ỵ": 908,
      "ỵ": 909,
      "Ỷ": 910,
      "ỷ": 911,
      "Ỹ": 912,
      "ỹ": 913,
      "ὰ": 914,
      "ὲ": 915,
      "ὶ": 916,
      "ὸ": 917,
      "ῶ": 918,
      "​": 919,
      "‍": 920,
      "–": 921,
      "—": 922,
      "‘": 923,
      "’": 924,
      "“": 925,
      "”": 926,
      "•": 927,
      "…": 928,
      "‰": 929,
      "⁰": 930,
      "⁵": 931,
      "⁶": 932,
      "⁻": 933,
      "⁽": 934,
      "⁾": 935,
      "₀": 936,
      "₁": 937,
      "₂": 938,
      "₃": 939,
      "₄": 940,
      "ₘ": 941,
      "ₛ": 942,
      "€": 943,
      "℃": 944,
      "ℌ": 945,
      "™": 946,
      "ℯ": 947,
      "ⅈ": 948,
      "←": 949,
      "↑": 950,
      "→": 951,
      "↗": 952,
      "↦": 953,
      "⇒": 954,
      "⇗": 955,
      "∀": 956,
      "∂": 957,
      "∅": 958,
      "∈": 959,
      "∑": 960,
      "−": 961,
      "∗": 962,
      "√": 963,
      "∞": 964,
      "∧": 965,
      "∨": 966,
      "∩": 967,
      "∪": 968,
      "∼": 969,
      "≈": 970,
      "≠": 971,
      "≡": 972,
      "≤": 973,
      "≥": 974,
      "⊂": 975,
      "⊗": 976,
      "⊤": 977,
      "⋀": 978,
      "⋁": 979,
      "⋅": 980,
      "⌟": 981,
      "⎛": 982,
      "⎜": 983,
      "⎝": 984,
      "⎞": 985,
      "⎟": 986,
      "⎠": 987,
      "⎡": 988,
      "⎢": 989,
      "⎣": 990,
      "⎤": 991,
      "⎥": 992,
      "⎦": 993,
      "─": 994,
      "━": 995,
      "│": 996,
      "┌": 997,
      "┐": 998,
      "└": 999,
      "┕": 1000,
      "┘": 1001,
      "├": 1002,
      "┬": 1003,
      "┻": 1004,
      "╯": 1005,
      "▀": 1006,
      "▁": 1007,
      "▂": 1008,
      "▃": 1009,
      "▄": 1010,
      "▅": 1011,
      "▆": 1012,
      "▇": 1013,
      "█": 1014,
      "▏": 1015,
      "░": 1016,
      "▒": 1017,
      "▓": 1018,
      "□": 1019,
      "★": 1020,
      "☉": 1021,
      "☏": 1022,
      "☹": 1023,
      "☺": 1024,
      "☻": 1025,
      "☼": 1026,
      "♥": 1027,
      "♫": 1028,
      "✊": 1029,
      "✌": 1030,
      "✓": 1031,
      "✕": 1032,
      "✿": 1033,
      "❌": 1034,
      "⟨": 1035,
      "⟩": 1036,
      "⠀": 1037,
      "⠂": 1038,
      "⠒": 1039,
      "⠓": 1040,
      "⠛": 1041,
      "⠥": 1042,
      "⡯": 1043,
      "⣄": 1044,
      "⣓": 1045,
      "⣛": 1046,
      "⣠": 1047,
      "⣷": 1048,
      "⣾": 1049,
      "⣿": 1050,
      "、": 1051,
      "。": 1052,
      "」": 1053,
      "【": 1054,
      "】": 1055,
      "あ": 1056,
      "い": 1057,
      "か": 1058,
      "こ": 1059,
      "さ": 1060,
      "し": 1061,
      "す": 1062,
      "た": 1063,
      "ち": 1064,
      "つ": 1065,
      "て": 1066,
      "で": 1067,
      "と": 1068,
      "に": 1069,
      "ぬ": 1070,
      "の": 1071,
      "は": 1072,
      "ば": 1073,
      "ぶ": 1074,
      "へ": 1075,
      "ほ": 1076,
      "ま": 1077,
      "み": 1078,
      "ゃ": 1079,
      "ら": 1080,
      "り": 1081,
      "る": 1082,
      "れ": 1083,
      "ろ": 1084,
      "を": 1085,
      "イ": 1086,
      "ウ": 1087,
      "カ": 1088,
      "ギ": 1089,
      "ク": 1090,
      "サ": 1091,
      "ザ": 1092,
      "シ": 1093,
      "ス": 1094,
      "ッ": 1095,
      "ツ": 1096,
      "ト": 1097,
      "ノ": 1098,
      "ブ": 1099,
      "ベ": 1100,
      "マ": 1101,
      "ミ": 1102,
      "ョ": 1103,
      "ラ": 1104,
      "リ": 1105,
      "ル": 1106,
      "ロ": 1107,
      "ン": 1108,
      "ー": 1109,
      "ヽ": 1110,
      "䷩": 1111,
      "䷮": 1112,
      "一": 1113,
      "三": 1114,
      "上": 1115,
      "下": 1116,
      "不": 1117,
      "与": 1118,
      "且": 1119,
      "世": 1120,
      "丢": 1121,
      "两": 1122,
      "个": 1123,
      "中": 1124,
      "串": 1125,
      "临": 1126,
      "为": 1127,
      "么": 1128,
      "义": 1129,
      "之": 1130,
      "乐": 1131,
      "也": 1132,
      "了": 1133,
      "事": 1134,
      "二": 1135,
      "于": 1136,
      "些": 1137,
      "交": 1138,
      "京": 1139,
      "人": 1140,
      "什": 1141,
      "仅": 1142,
      "今": 1143,
      "从": 1144,
      "他": 1145,
      "代": 1146,
      "以": 1147,
      "们": 1148,
      "件": 1149,
      "任": 1150,
      "份": 1151,
      "休": 1152,
      "优": 1153,
      "会": 1154,
      "伯": 1155,
      "但": 1156,
      "位": 1157,
      "低": 1158,
      "体": 1159,
      "何": 1160,
      "余": 1161,
      "作": 1162,
      "你": 1163,
      "佳": 1164,
      "使": 1165,
      "例": 1166,
      "依": 1167,
      "便": 1168,
      "保": 1169,
      "信": 1170,
      "修": 1171,
      "倍": 1172,
      "候": 1173,
      "值": 1174,
      "做": 1175,
      "側": 1176,
      "像": 1177,
      "儿": 1178,
      "允": 1179,
      "元": 1180,
      "充": 1181,
      "先": 1182,
      "光": 1183,
      "免": 1184,
      "入": 1185,
      "全": 1186,
      "关": 1187,
      "其": 1188,
      "典": 1189,
      "兹": 1190,
      "兼": 1191,
      "内": 1192,
      "再": 1193,
      "写": 1194,
      "况": 1195,
      "准": 1196,
      "减": 1197,
      "几": 1198,
      "出": 1199,
      "击": 1200,
      "函": 1201,
      "分": 1202,
      "切": 1203,
      "列": 1204,
      "则": 1205,
      "创": 1206,
      "删": 1207,
      "判": 1208,
      "利": 1209,
      "别": 1210,
      "到": 1211,
      "制": 1212,
      "前": 1213,
      "剧": 1214,
      "剩": 1215,
      "副": 1216,
      "功": 1217,
      "加": 1218,
      "务": 1219,
      "动": 1220,
      "助": 1221,
      "動": 1222,
      "勝": 1223,
      "包": 1224,
      "化": 1225,
      "区": 1226,
      "医": 1227,
      "千": 1228,
      "升": 1229,
      "半": 1230,
      "协": 1231,
      "单": 1232,
      "南": 1233,
      "博": 1234,
      "占": 1235,
      "卧": 1236,
      "印": 1237,
      "即": 1238,
      "历": 1239,
      "压": 1240,
      "原": 1241,
      "去": 1242,
      "参": 1243,
      "參": 1244,
      "又": 1245,
      "及": 1246,
      "双": 1247,
      "反": 1248,
      "发": 1249,
      "取": 1250,
      "受": 1251,
      "变": 1252,
      "口": 1253,
      "句": 1254,
      "只": 1255,
      "可": 1256,
      "台": 1257,
      "右": 1258,
      "叶": 1259,
      "号": 1260,
      "各": 1261,
      "合": 1262,
      "同": 1263,
      "名": 1264,
      "后": 1265,
      "向": 1266,
      "否": 1267,
      "启": 1268,
      "告": 1269,
      "周": 1270,
      "命": 1271,
      "和": 1272,
      "响": 1273,
      "唯": 1274,
      "唱": 1275,
      "商": 1276,
      "器": 1277,
      "回": 1278,
      "因": 1279,
      "困": 1280,
      "固": 1281,
      "国": 1282,
      "图": 1283,
      "國": 1284,
      "在": 1285,
      "地": 1286,
      "场": 1287,
      "均": 1288,
      "坐": 1289,
      "块": 1290,
      "型": 1291,
      "城": 1292,
      "域": 1293,
      "基": 1294,
      "填": 1295,
      "声": 1296,
      "处": 1297,
      "复": 1298,
      "外": 1299,
      "多": 1300,
      "够": 1301,
      "大": 1302,
      "天": 1303,
      "失": 1304,
      "头": 1305,
      "夹": 1306,
      "好": 1307,
      "如": 1308,
      "始": 1309,
      "子": 1310,
      "字": 1311,
      "存": 1312,
      "它": 1313,
      "完": 1314,
      "宏": 1315,
      "定": 1316,
      "实": 1317,
      "家": 1318,
      "容": 1319,
      "宽": 1320,
      "宿": 1321,
      "寸": 1322,
      "对": 1323,
      "寻": 1324,
      "射": 1325,
      "将": 1326,
      "對": 1327,
      "小": 1328,
      "少": 1329,
      "尔": 1330,
      "尝": 1331,
      "尤": 1332,
      "就": 1333,
      "尺": 1334,
      "展": 1335,
      "左": 1336,
      "巨": 1337,
      "己": 1338,
      "已": 1339,
      "巴": 1340,
      "市": 1341,
      "布": 1342,
      "带": 1343,
      "帮": 1344,
      "常": 1345,
      "干": 1346,
      "平": 1347,
      "并": 1348,
      "幸": 1349,
      "序": 1350,
      "库": 1351,
      "应": 1352,
      "底": 1353,
      "废": 1354,
      "度": 1355,
      "座": 1356,
      "建": 1357,
      "开": 1358,
      "异": 1359,
      "弃": 1360,
      "式": 1361,
      "强": 1362,
      "当": 1363,
      "录": 1364,
      "形": 1365,
      "彩": 1366,
      "影": 1367,
      "往": 1368,
      "径": 1369,
      "待": 1370,
      "很": 1371,
      "得": 1372,
      "循": 1373,
      "微": 1374,
      "心": 1375,
      "必": 1376,
      "志": 1377,
      "快": 1378,
      "念": 1379,
      "忽": 1380,
      "态": 1381,
      "性": 1382,
      "恢": 1383,
      "息": 1384,
      "情": 1385,
      "慢": 1386,
      "戏": 1387,
      "成": 1388,
      "我": 1389,
      "或": 1390,
      "户": 1391,
      "所": 1392,
      "手": 1393,
      "才": 1394,
      "打": 1395,
      "执": 1396,
      "扩": 1397,
      "批": 1398,
      "找": 1399,
      "技": 1400,
      "把": 1401,
      "抛": 1402,
      "报": 1403,
      "拆": 1404,
      "择": 1405,
      "括": 1406,
      "持": 1407,
      "指": 1408,
      "按": 1409,
      "换": 1410,
      "据": 1411,
      "授": 1412,
      "掉": 1413,
      "排": 1414,
      "接": 1415,
      "控": 1416,
      "提": 1417,
      "插": 1418,
      "摘": 1419,
      "播": 1420,
      "操": 1421,
      "收": 1422,
      "改": 1423,
      "放": 1424,
      "故": 1425,
      "效": 1426,
      "数": 1427,
      "整": 1428,
      "文": 1429,
      "断": 1430,
      "斯": 1431,
      "新": 1432,
      "斷": 1433,
      "方": 1434,
      "无": 1435,
      "既": 1436,
      "日": 1437,
      "旦": 1438,
      "旧": 1439,
      "时": 1440,
      "明": 1441,
      "易": 1442,
      "星": 1443,
      "映": 1444,
      "是": 1445,
      "显": 1446,
      "景": 1447,
      "曙": 1448,
      "曲": 1449,
      "更": 1450,
      "書": 1451,
      "最": 1452,
      "月": 1453,
      "有": 1454,
      "期": 1455,
      "未": 1456,
      "本": 1457,
      "术": 1458,
      "机": 1459,
      "杂": 1460,
      "权": 1461,
      "材": 1462,
      "束": 1463,
      "条": 1464,
      "来": 1465,
      "板": 1466,
      "极": 1467,
      "构": 1468,
      "析": 1469,
      "果": 1470,
      "柏": 1471,
      "某": 1472,
      "查": 1473,
      "标": 1474,
      "栋": 1475,
      "样": 1476,
      "根": 1477,
      "格": 1478,
      "桌": 1479,
      "档": 1480,
      "检": 1481,
      "模": 1482,
      "次": 1483,
      "欲": 1484,
      "歌": 1485,
      "止": 1486,
      "正": 1487,
      "此": 1488,
      "残": 1489,
      "段": 1490,
      "母": 1491,
      "每": 1492,
      "比": 1493,
      "求": 1494,
      "没": 1495,
      "法": 1496,
      "消": 1497,
      "添": 1498,
      "清": 1499,
      "源": 1500,
      "滑": 1501,
      "滚": 1502,
      "演": 1503,
      "点": 1504,
      "為": 1505,
      "热": 1506,
      "然": 1507,
      "照": 1508,
      "父": 1509,
      "片": 1510,
      "版": 1511,
      "特": 1512,
      "状": 1513,
      "独": 1514,
      "率": 1515,
      "环": 1516,
      "现": 1517,
      "理": 1518,
      "生": 1519,
      "用": 1520,
      "田": 1521,
      "由": 1522,
      "电": 1523,
      "画": 1524,
      "界": 1525,
      "留": 1526,
      "略": 1527,
      "発": 1528,
      "登": 1529,
      "的": 1530,
      "益": 1531,
      "盖": 1532,
      "盘": 1533,
      "目": 1534,
      "直": 1535,
      "相": 1536,
      "省": 1537,
      "知": 1538,
      "矩": 1539,
      "码": 1540,
      "硬": 1541,
      "确": 1542,
      "碗": 1543,
      "碼": 1544,
      "示": 1545,
      "票": 1546,
      "福": 1547,
      "离": 1548,
      "禾": 1549,
      "种": 1550,
      "秒": 1551,
      "积": 1552,
      "称": 1553,
      "移": 1554,
      "程": 1555,
      "稍": 1556,
      "空": 1557,
      "窗": 1558,
      "立": 1559,
      "站": 1560,
      "章": 1561,
      "童": 1562,
      "笑": 1563,
      "符": 1564,
      "第": 1565,
      "等": 1566,
      "策": 1567,
      "筛": 1568,
      "签": 1569,
      "简": 1570,
      "算": 1571,
      "簫": 1572,
      "类": 1573,
      "精": 1574,
      "系": 1575,
      "納": 1576,
      "素": 1577,
      "约": 1578,
      "级": 1579,
      "纬": 1580,
      "纯": 1581,
      "纳": 1582,
      "组": 1583,
      "经": 1584,
      "结": 1585,
      "给": 1586,
      "绝": 1587,
      "统": 1588,
      "继": 1589,
      "续": 1590,
      "编": 1591,
      "缩": 1592,
      "置": 1593,
      "考": 1594,
      "者": 1595,
      "而": 1596,
      "耗": 1597,
      "股": 1598,
      "肯": 1599,
      "背": 1600,
      "能": 1601,
      "脸": 1602,
      "自": 1603,
      "致": 1604,
      "舍": 1605,
      "舞": 1606,
      "般": 1607,
      "节": 1608,
      "若": 1609,
      "英": 1610,
      "茲": 1611,
      "莆": 1612,
      "获": 1613,
      "菜": 1614,
      "萧": 1615,
      "葉": 1616,
      "虚": 1617,
      "虽": 1618,
      "行": 1619,
      "表": 1620,
      "被": 1621,
      "装": 1622,
      "要": 1623,
      "覆": 1624,
      "视": 1625,
      "角": 1626,
      "解": 1627,
      "言": 1628,
      "詞": 1629,
      "語": 1630,
      "警": 1631,
      "计": 1632,
      "认": 1633,
      "让": 1634,
      "议": 1635,
      "记": 1636,
      "讲": 1637,
      "许": 1638,
      "设": 1639,
      "访": 1640,
      "证": 1641,
      "识": 1642,
      "词": 1643,
      "试": 1644,
      "话": 1645,
      "询": 1646,
      "该": 1647,
      "语": 1648,
      "误": 1649,
      "说": 1650,
      "请": 1651,
      "读": 1652,
      "调": 1653,
      "谓": 1654,
      "象": 1655,
      "败": 1656,
      "货": 1657,
      "质": 1658,
      "赛": 1659,
      "超": 1660,
      "距": 1661,
      "跟": 1662,
      "路": 1663,
      "跳": 1664,
      "蹈": 1665,
      "身": 1666,
      "车": 1667,
      "转": 1668,
      "轮": 1669,
      "软": 1670,
      "轴": 1671,
      "载": 1672,
      "较": 1673,
      "辑": 1674,
      "输": 1675,
      "边": 1676,
      "达": 1677,
      "过": 1678,
      "运": 1679,
      "近": 1680,
      "返": 1681,
      "还": 1682,
      "这": 1683,
      "进": 1684,
      "远": 1685,
      "连": 1686,
      "退": 1687,
      "送": 1688,
      "适": 1689,
      "选": 1690,
      "逐": 1691,
      "途": 1692,
      "通": 1693,
      "速": 1694,
      "逻": 1695,
      "遍": 1696,
      "避": 1697,
      "那": 1698,
      "部": 1699,
      "都": 1700,
      "采": 1701,
      "里": 1702,
      "重": 1703,
      "量": 1704,
      "金": 1705,
      "钟": 1706,
      "铁": 1707,
      "销": 1708,
      "错": 1709,
      "键": 1710,
      "长": 1711,
      "開": 1712,
      "闭": 1713,
      "问": 1714,
      "间": 1715,
      "阈": 1716,
      "队": 1717,
      "防": 1718,
      "限": 1719,
      "院": 1720,
      "除": 1721,
      "随": 1722,
      "隔": 1723,
      "集": 1724,
      "需": 1725,
      "非": 1726,
      "面": 1727,
      "音": 1728,
      "页": 1729,
      "顶": 1730,
      "项": 1731,
      "顺": 1732,
      "须": 1733,
      "预": 1734,
      "领": 1735,
      "频": 1736,
      "题": 1737,
      "额": 1738,
      "风": 1739,
      "首": 1740,
      "馬": 1741,
      "马": 1742,
      "验": 1743,
      "高": 1744,
      "魔": 1745,
      "默": 1746,
      "鼠": 1747,
      "ꞁ": 1748,
      "국": 1749,
      "글": 1750,
      "기": 1751,
      "날": 1752,
      "는": 1753,
      "니": 1754,
      "다": 1755,
      "로": 1756,
      "류": 1757,
      "름": 1758,
      "린": 1759,
      "말": 1760,
      "문": 1761,
      "소": 1762,
      "수": 1763,
      "습": 1764,
      "시": 1765,
      "쓰": 1766,
      "알": 1767,
      "어": 1768,
      "없": 1769,
      "여": 1770,
      "올": 1771,
      "요": 1772,
      "은": 1773,
      "이": 1774,
      "장": 1775,
      "정": 1776,
      "졌": 1777,
      "종": 1778,
      "주": 1779,
      "중": 1780,
      "짜": 1781,
      "크": 1782,
      "표": 1783,
      "한": 1784,
      "️": 1785,
      "︵": 1786,
      "ﺵ": 1787,
      "！": 1788,
      "（": 1789,
      "）": 1790,
      "，": 1791,
      "／": 1792,
      "：": 1793,
      "？": 1794,
      "＿": 1795,
      "｛": 1796,
      "｝": 1797,
      "･": 1798,
      "￣": 1799,
      "￥": 1800,
      "￼": 1801,
      "�": 1802,
      "🇪": 1803,
      "🇸": 1804,
      "🌈": 1805,
      "🍆": 1806,
      "🏳": 1807,
      "🏾": 1808,
      "👨": 1809,
      "📖": 1810,
      "in": 1811,
      "se": 1812,
      "re": 1813,
      "on": 1814,
      "at": 1815,
      "er": 1816,
      "or": 1817,
      "st": 1818,
      "th": 1819,
      "en": 1820,
      "al": 1821,
      "de": 1822,
      "ar": 1823,
      "\"\"": 1824,
      "le": 1825,
      "an": 1826,
      "me": 1827,
      "ti": 1828,
      "ur": 1829,
      "the": 1830,
      "lf": 1831,
      "self": 1832,
      "if": 1833,
      "ce": 1834,
      "te": 1835,
      "is": 1836,
      "to": 1837,
      "ro": 1838,
      "fi": 1839,
      "ge": 1840,
      "co": 1841,
      "ame": 1842,
      "ing": 1843,
      "for": 1844,
      "urn": 1845,
      "turn": 1846,
      "\"\"\"": 1847,
      "ue": 1848,
      "):": 1849,
      "lo": 1850,
      "t_": 1851,
      "ch": 1852,
      "as": 1853,
      "ate": 1854,
      "pe": 1855,
      "tion": 1856,
      "li": 1857,
      "ct": 1858,
      "un": 1859,
      "return": 1860,
      "el": 1861,
      "id": 1862,
      "ad": 1863,
      "ion": 1864,
      "no": 1865,
      "con": 1866,
      "def": 1867,
      "--": 1868,
      "ent": 1869,
      "name": 1870,
      "and": 1871,
      "of": 1872,
      "ra": 1873,
      "di": 1874,
      "mp": 1875,
      "ri": 1876,
      "ex": 1877,
      "val": 1878,
      "res": 1879,
      "ty": 1880,
      "par": 1881,
      "ul": 1882,
      "one": 1883,
      "ter": 1884,
      "ut": 1885,
      "ke": 1886,
      "ata": 1887,
      "ma": 1888,
      "()": 1889,
      "um": 1890,
      "str": 1891,
      "ed": 1892,
      "ck": 1893,
      "es": 1894,
      "ab": 1895,
      "data": 1896,
      "None": 1897,
      "ts": 1898,
      "file": 1899,
      "am": 1900,
      "ation": 1901,
      "si": 1902,
      "not": 1903,
      "mo": 1904,
      "up": 1905,
      "pat": 1906,
      "ver": 1907,
      "type": 1908,
      "he": 1909,
      "wi": 1910,
      "ction": 1911,
      "value": 1912,
      "pro": 1913,
      "gs": 1914,
      "ser": 1915,
      "path": 1916,
      "op": 1917,
      "tr": 1918,
      "Re": 1919,
      "mat": 1920,
      "ne": 1921,
      "d_": 1922,
      "('": 1923,
      "ss": 1924,
      "ap": 1925,
      "all": 1926,
      "be": 1927,
      "ve": 1928,
      "))": 1929,
      "ob": 1930,
      "key": 1931,
      "ror": 1932,
      "it": 1933,
      "po": 1934,
      "',": 1935,
      "list": 1936,
      "['": 1937,
      "']": 1938,
      "cl": 1939,
      "ol": 1940,
      "param": 1941,
      "ta": 1942,
      "pa": 1943,
      "rom": 1944,
      "----": 1945,
      "set": 1946,
      "end": 1947,
      "able": 1948,
      "il": 1949,
      "int": 1950,
      "args": 1951,
      "from": 1952,
      "len": 1953,
      "do": 1954,
      "obj": 1955,
      "with": 1956,
      "vi": 1957,
      "time": 1958,
      "get": 1959,
      "qu": 1960,
      "out": 1961,
      "la": 1962,
      "``": 1963,
      "s_": 1964,
      "bu": 1965,
      "')": 1966,
      "sh": 1967,
      "su": 1968,
      "ren": 1969,
      "lin": 1970,
      "==": 1971,
      "get_": 1972,
      "age": 1973,
      "ect": 1974,
      "''": 1975,
      "ance": 1976,
      "ult": 1977,
      "(\"": 1978,
      "else": 1979,
      "ment": 1980,
      "rror": 1981,
      "bo": 1982,
      "log": 1983,
      "Error": 1984,
      "ba": 1985,
      "ise": 1986,
      "que": 1987,
      "ord": 1988,
      "Return": 1989,
      "inst": 1990,
      "':": 1991,
      "cep": 1992,
      "per": 1993,
      "fo": 1994,
      "format": 1995,
      "ass": 1996,
      "col": 1997,
      "app": 1998,
      "sion": 1999,
      "pre": 2000,
      "Tr": 2001,
      "fig": 2002,
      "_name": 2003,
      "ly": 2004,
      "tex": 2005,
      "date": 2006,
      "et": 2007,
      "by": 2008,
      "raise": 2009,
      "ms": 2010,
      "che": 2011,
      "gi": 2012,
      "_id": 2013,
      "so": 2014,
      "code": 2015,
      "string": 2016,
      "fun": 2017,
      "ted": 2018,
      "True": 2019,
      "ig": 2020,
      "sc": 2021,
      "ze": 2022,
      "The": 2023,
      "us": 2024,
      "ll": 2025,
      "instance": 2026,
      "com": 2027,
      "cur": 2028,
      "ort": 2029,
      "ite": 2030,
      "quest": 2031,
      "tri": 2032,
      "object": 2033,
      "text": 2034,
      "config": 2035,
      "ic": 2036,
      "alse": 2037,
      "put": 2038,
      "use": 2039,
      "mple": 2040,
      "dict": 2041,
      "that": 2042,
      "pec": 2043,
      "are": 2044,
      "ds": 2045,
      "False": 2046,
      "num": 2047,
      "wh": 2048,
      "ers": 2049,
      "ist": 2050,
      "\",": 2051,
      "we": 2052,
      "read": 2053,
      "),": 2054,
      "fa": 2055,
      "ven": 2056,
      ">>": 2057,
      "del": 2058,
      "py": 2059,
      "new": 2060,
      "user": 2061,
      "__": 2062,
      "this": 2063,
      "excep": 2064,
      "kw": 2065,
      "ac": 2066,
      "urce": 2067,
      "red": 2068,
      "dex": 2069,
      "request": 2070,
      "line": 2071,
      "{}": 2072,
      "reate": 2073,
      "sub": 2074,
      "In": 2075,
      "try": 2076,
      "ca": 2077,
      "node": 2078,
      "ray": 2079,
      "Returns": 2080,
      "_in": 2081,
      "pon": 2082,
      "star": 2083,
      "os": 2084,
      "cess": 2085,
      "url": 2086,
      "kwargs": 2087,
      "cont": 2088,
      "\")": 2089,
      "ctor": 2090,
      "fe": 2091,
      "**": 2092,
      "od": 2093,
      "ext": 2094,
      "ho": 2095,
      "ht": 2096,
      "sa": 2097,
      "min": 2098,
      "defa": 2099,
      "fiel": 2100,
      "error": 2101,
      "ange": 2102,
      "add": 2103,
      "ary": 2104,
      "ger": 2105,
      "base": 2106,
      "Ex": 2107,
      "sen": 2108,
      "])": 2109,
      "spec": 2110,
      "ure": 2111,
      "meth": 2112,
      "array": 2113,
      "sy": 2114,
      "option": 2115,
      "ameter": 2116,
      "arg": 2117,
      "comp": 2118,
      "sp": 2119,
      "result": 2120,
      "function": 2121,
      "_c": 2122,
      "du": 2123,
      "pr": 2124,
      "respon": 2125,
      "low": 2126,
      "dir": 2127,
      "Con": 2128,
      "load": 2129,
      "np": 2130,
      "ust": 2131,
      "..": 2132,
      "var": 2133,
      "ali": 2134,
      "append": 2135,
      "ber": 2136,
      "size": 2137,
      "comm": 2138,
      "ip": 2139,
      "state": 2140,
      "ces": 2141,
      "loc": 2142,
      "values": 2143,
      "ther": 2144,
      "has": 2145,
      "und": 2146,
      "given": 2147,
      "form": 2148,
      "rent": 2149,
      "stat": 2150,
      "rip": 2151,
      "coun": 2152,
      "model": 2153,
      "ile": 2154,
      "mess": 2155,
      "valid": 2156,
      "ument": 2157,
      "message": 2158,
      "'''": 2159,
      "except": 2160,
      "ec": 2161,
      "enti": 2162,
      "tes": 2163,
      "class": 2164,
      "index": 2165,
      "gro": 2166,
      "max": 2167,
      "],": 2168,
      "00": 2169,
      "'.": 2170,
      "pu": 2171,
      "ator": 2172,
      "to_": 2173,
      "head": 2174,
      "response": 2175,
      "y_": 2176,
      "ph": 2177,
      "om": 2178,
      "au": 2179,
      "wor": 2180,
      "version": 2181,
      "pla": 2182,
      "ot": 2183,
      "If": 2184,
      "ele": 2185,
      "map": 2186,
      "Par": 2187,
      "Val": 2188,
      "will": 2189,
      "_type": 2190,
      "_re": 2191,
      "ded": 2192,
      "elif": 2193,
      "back": 2194,
      "gen": 2195,
      ").": 2196,
      "der": 2197,
      "method": 2198,
      "im": 2199,
      "call": 2200,
      "match": 2201,
      "lock": 2202,
      "run": 2203,
      "ken": 2204,
      "fin": 2205,
      "default": 2206,
      "sig": 2207,
      "son": 2208,
      "ask": 2209,
      "tar": 2210,
      "group": 2211,
      "vice": 2212,
      "ting": 2213,
      "attr": 2214,
      "work": 2215,
      "temp": 2216,
      "check": 2217,
      "ype": 2218,
      "ev": 2219,
      "tain": 2220,
      "wri": 2221,
      "Th": 2222,
      "update": 2223,
      "ste": 2224,
      "isinstance": 2225,
      "tran": 2226,
      ".\"\"\"": 2227,
      "row": 2228,
      "quer": 2229,
      "dire": 2230,
      "Ar": 2231,
      "al_": 2232,
      "lic": 2233,
      "jo": 2234,
      "params": 2235,
      "mage": 2236,
      "gra": 2237,
      "ifi": 2238,
      "wn": 2239,
      "sor": 2240,
      "filen": 2241,
      "ameters": 2242,
      "ok": 2243,
      "item": 2244,
      "_path": 2245,
      "tra": 2246,
      "filename": 2247,
      "lab": 2248,
      "inter": 2249,
      "\":": 2250,
      "hand": 2251,
      "[\"": 2252,
      "late": 2253,
      "number": 2254,
      "fil": 2255,
      "can": 2256,
      "token": 2257,
      "='": 2258,
      "join": 2259,
      "er_": 2260,
      "json": 2261,
      "parse": 2262,
      "table": 2263,
      "():": 2264,
      "cli": 2265,
      "word": 2266,
      "st_": 2267,
      "create": 2268,
      "info": 2269,
      "ou": 2270,
      "Value": 2271,
      "Get": 2272,
      "pi": 2273,
      "_file": 2274,
      "ource": 2275,
      ">>>": 2276,
      "output": 2277,
      "conne": 2278,
      "This": 2279,
      "umn": 2280,
      "dis": 2281,
      "ent_": 2282,
      "imp": 2283,
      "is_": 2284,
      "sign": 2285,
      "[]": 2286,
      "ax": 2287,
      "start": 2288,
      "command": 2289,
      "sho": 2290,
      "source": 2291,
      "wa": 2292,
      "print": 2293,
      "tribu": 2294,
      "exist": 2295,
      "port": 2296,
      "label": 2297,
      "vari": 2298,
      "image": 2299,
      "\".": 2300,
      "ha": 2301,
      "doc": 2302,
      "--------": 2303,
      "fix": 2304,
      "sha": 2305,
      "contain": 2306,
      "ON": 2307,
      "iter": 2308,
      "cor": 2309,
      "ild": 2310,
      "_s": 2311,
      "column": 2312,
      "arch": 2313,
      "flo": 2314,
      "ER": 2315,
      "spli": 2316,
      "remo": 2317,
      "modu": 2318,
      "ci": 2319,
      "its": 2320,
      "module": 2321,
      "_data": 2322,
      "ute": 2323,
      "count": 2324,
      "items": 2325,
      "ults": 2326,
      "names": 2327,
      "De": 2328,
      "scrip": 2329,
      "event": 2330,
      "filter": 2331,
      "uld": 2332,
      "pass": 2333,
      "ff": 2334,
      "query": 2335,
      "ret": 2336,
      "float": 2337,
      "ified": 2338,
      "block": 2339,
      "da": 2340,
      "pl": 2341,
      "cke": 2342,
      "ated": 2343,
      "write": 2344,
      "+=": 2345,
      "ding": 2346,
      "sess": 2347,
      "keys": 2348,
      "field": 2349,
      "range": 2350,
      "set_": 2351,
      "process": 2352,
      "ID": 2353,
      "gth": 2354,
      "bin": 2355,
      "qui": 2356,
      "sing": 2357,
      "bug": 2358,
      "ses": 2359,
      "ich": 2360,
      "argument": 2361,
      "ry": 2362,
      "ir": 2363,
      "rame": 2364,
      "content": 2365,
      "vel": 2366,
      "c_": 2367,
      "ments": 2368,
      "msg": 2369,
      "\"]": 2370,
      "ress": 2371,
      "ject": 2372,
      "Type": 2373,
      "ations": 2374,
      "IN": 2375,
      "ree": 2376,
      "ach": 2377,
      "shape": 2378,
      "Co": 2379,
      "cal": 2380,
      "sta": 2381,
      "cls": 2382,
      "logger": 2383,
      "open": 2384,
      "which": 2385,
      "No": 2386,
      "current": 2387,
      "resource": 2388,
      "_f": 2389,
      "Lo": 2390,
      "til": 2391,
      "any": 2392,
      "auth": 2393,
      "ValueError": 2394,
      "rec": 2395,
      "Ad": 2396,
      "uple": 2397,
      "debug": 2398,
      "used": 2399,
      "sed": 2400,
      "ctory": 2401,
      "fir": 2402,
      "host": 2403,
      ":`": 2404,
      "ps": 2405,
      "context": 2406,
      "files": 2407,
      "func": 2408,
      "length": 2409,
      "other": 2410,
      "ning": 2411,
      "input": 2412,
      "ml": 2413,
      "session": 2414,
      "p_": 2415,
      "RE": 2416,
      "clu": 2417,
      "ST": 2418,
      "ble": 2419,
      "ang": 2420,
      "only": 2421,
      "place": 2422,
      "ini": 2423,
      "put_": 2424,
      "returns": 2425,
      "gin": 2426,
      "Create": 2427,
      "into": 2428,
      "add_": 2429,
      "erate": 2430,
      "attribu": 2431,
      "split": 2432,
      "].": 2433,
      "point": 2434,
      "ence": 2435,
      "lib": 2436,
      "war": 2437,
      "AT": 2438,
      "status": 2439,
      "action": 2440,
      "df": 2441,
      "server": 2442,
      "orm": 2443,
      "tions": 2444,
      "por": 2445,
      "options": 2446,
      "ull": 2447,
      "pack": 2448,
      "tag": 2449,
      "tuple": 2450,
      "sup": 2451,
      "av": 2452,
      "stru": 2453,
      "lay": 2454,
      "over": 2455,
      "posi": 2456,
      "dep": 2457,
      "Pro": 2458,
      "Se": 2459,
      "ream": 2460,
      "!=": 2461,
      "off": 2462,
      "atch": 2463,
      "ag": 2464,
      "uni": 2465,
      "ew": 2466,
      "ive": 2467,
      "lat": 2468,
      "Data": 2469,
      "ies": 2470,
      "main": 2471,
      "pace": 2472,
      "trans": 2473,
      "specified": 2474,
      "new_": 2475,
      "pri": 2476,
      "diction": 2477,
      "md": 2478,
      "gr": 2479,
      "ample": 2480,
      "())": 2481,
      "whe": 2482,
      "task": 2483,
      "db": 2484,
      "Args": 2485,
      "variable": 2486,
      "sto": 2487,
      "([": 2488,
      "nel": 2489,
      "import": 2490,
      "wid": 2491,
      "api": 2492,
      "ron": 2493,
      "change": 2494,
      "bool": 2495,
      "ory": 2496,
      "level": 2497,
      "color": 2498,
      "iel": 2499,
      "Excep": 2500,
      "feren": 2501,
      "page": 2502,
      "sum": 2503,
      "Set": 2504,
      "ref": 2505,
      "cache": 2506,
      "_list": 2507,
      "tern": 2508,
      "sample": 2509,
      "ally": 2510,
      "Exception": 2511,
      "led": 2512,
      "char": 2513,
      "ten": 2514,
      "clo": 2515,
      "_key": 2516,
      "tive": 2517,
      "dist": 2518,
      "net": 2519,
      "template": 2520,
      "ler": 2521,
      "reg": 2522,
      "ct_": 2523,
      "mis": 2524,
      "each": 2525,
      "Un": 2526,
      "ature": 2527,
      "aliz": 2528,
      "raw": 2529,
      "presen": 2530,
      "have": 2531,
      "seri": 2532,
      "lim": 2533,
      "{'": 2534,
      "lines": 2535,
      "ind": 2536,
      "thon": 2537,
      "proper": 2538,
      "Name": 2539,
      "job": 2540,
      "stream": 2541,
      "mb": 2542,
      "En": 2543,
      "directory": 2544,
      "ant": 2545,
      "mul": 2546,
      "E_": 2547,
      "Parameters": 2548,
      "must": 2549,
      "cle": 2550,
      "link": 2551,
      "adata": 2552,
      "pos": 2553,
      "List": 2554,
      "ates": 2555,
      "target": 2556,
      "exp": 2557,
      "ved": 2558,
      "ase": 2559,
      "client": 2560,
      "rent_": 2561,
      "ints": 2562,
      "prefix": 2563,
      "service": 2564,
      "copy": 2565,
      "met": 2566,
      "setting": 2567,
      "util": 2568,
      "order": 2569,
      "exec": 2570,
      "fields": 2571,
      "graph": 2572,
      "results": 2573,
      "men": 2574,
      "mode": 2575,
      "act": 2576,
      "first": 2577,
      "iz": 2578,
      "connection": 2579,
      "htt": 2580,
      "dele": 2581,
      "man": 2582,
      "cket": 2583,
      "uration": 2584,
      "should": 2585,
      "ule": 2586,
      "ties": 2587,
      "igh": 2588,
      "'):": 2589,
      "headers": 2590,
      "...": 2591,
      "St": 2592,
      "_b": 2593,
      "cs": 2594,
      "Ke": 2595,
      "search": 2596,
      "header": 2597,
      "Res": 2598,
      "AP": 2599,
      "_get_": 2600,
      "dif": 2601,
      "dy": 2602,
      "UR": 2603,
      "using": 2604,
      "when": 2605,
      "view": 2606,
      "ield": 2607,
      "chan": 2608,
      "dictionary": 2609,
      "----------": 2610,
      "=\"": 2611,
      "plo": 2612,
      "mar": 2613,
      "[:": 2614,
      "Che": 2615,
      "from_": 2616,
      "extra": 2617,
      "address": 2618,
      "sert": 2619,
      "optional": 2620,
      "ard": 2621,
      "lob": 2622,
      "hash": 2623,
      "element": 2624,
      "sele": 2625,
      "metadata": 2626,
      "parser": 2627,
      "make": 2628,
      "objects": 2629,
      "Key": 2630,
      "ak": 2631,
      "parameters": 2632,
      "((": 2633,
      "clude": 2634,
      "requi": 2635,
      "io": 2636,
      "n_": 2637,
      "clas": 2638,
      "root": 2639,
      "Check": 2640,
      "timeout": 2641,
      "ing_": 2642,
      "_to_": 2643,
      "DE": 2644,
      "child": 2645,
      "stem": 2646,
      "OR": 2647,
      "ub": 2648,
      "found": 2649,
      "ference": 2650,
      "tle": 2651,
      "rap": 2652,
      "norm": 2653,
      "ight": 2654,
      "oper": 2655,
      "sequ": 2656,
      "10": 2657,
      "frame": 2658,
      "struct": 2659,
      "ail": 2660,
      "Op": 2661,
      "An": 2662,
      "_info": 2663,
      "Add": 2664,
      "_size": 2665,
      "->": 2666,
      "dtype": 2667,
      "record": 2668,
      "ump": 2669,
      "descrip": 2670,
      "ging": 2671,
      "ed_": 2672,
      "//": 2673,
      "conver": 2674,
      "remove": 2675,
      "cate": 2676,
      "unk": 2677,
      "exists": 2678,
      "go": 2679,
      "mem": 2680,
      "For": 2681,
      "datetime": 2682,
      "package": 2683,
      "handle": 2684,
      "cul": 2685,
      "T_": 2686,
      "ys": 2687,
      "bytes": 2688,
      "multi": 2689,
      "axis": 2690,
      "ME": 2691,
      "env": 2692,
      "af": 2693,
      "entry": 2694,
      "'],": 2695,
      "device": 2696,
      "down": 2697,
      "secon": 2698,
      "store": 2699,
      "gener": 2700,
      "but": 2701,
      "emp": 2702,
      "ep": 2703,
      "top": 2704,
      "ity": 2705,
      "ster": 2706,
      "::": 2707,
      "contin": 2708,
      "regi": 2709,
      "Id": 2710,
      "_dict": 2711,
      "section": 2712,
      "channel": 2713,
      "File": 2714,
      "alize": 2715,
      "parent": 2716,
      "sys": 2717,
      "sal": 2718,
      "parameter": 2719,
      "does": 2720,
      "().": 2721,
      "_dir": 2722,
      "arguments": 2723,
      "sche": 2724,
      "width": 2725,
      "cted": 2726,
      "x_": 2727,
      "scal": 2728,
      "tree": 2729,
      "test": 2730,
      "max_": 2731,
      "cmd": 2732,
      "als": 2733,
      "parti": 2734,
      "offset": 2735,
      "replace": 2736,
      "identi": 2737,
      "ping": 2738,
      "colle": 2739,
      "strip": 2740,
      "title": 2741,
      "fol": 2742,
      "LO": 2743,
      "mon": 2744,
      "ine": 2745,
      "ans": 2746,
      "sco": 2747,
      "cre": 2748,
      "##": 2749,
      "hel": 2750,
      "indi": 2751,
      "like": 2752,
      "ult_": 2753,
      "orig": 2754,
      "------": 2755,
      "ific": 2756,
      "rand": 2757,
      "matri": 2758,
      "lu": 2759,
      "cy": 2760,
      "Di": 2761,
      "(),": 2762,
      "comple": 2763,
      "oc": 2764,
      "rtype": 2765,
      "_url": 2766,
      "'])": 2767,
      "sure": 2768,
      "nodes": 2769,
      "EN": 2770,
      "exception": 2771,
      "AL": 2772,
      "fore": 2773,
      "win": 2774,
      "`.": 2775,
      "continue": 2776,
      "attribute": 2777,
      "pop": 2778,
      "queue": 2779,
      "Ser": 2780,
      "settings": 2781,
      "provi": 2782,
      "current_": 2783,
      "tor": 2784,
      "vis": 2785,
      "lon": 2786,
      "formation": 2787,
      "delete": 2788,
      "pub": 2789,
      "where": 2790,
      "allow": 2791,
      "find": 2792,
      "ime": 2793,
      "nump": 2794,
      "points": 2795,
      "AR": 2796,
      "coord": 2797,
      "body": 2798,
      "buil": 2799,
      "face": 2800,
      "wo": 2801,
      "ready": 2802,
      "system": 2803,
      "ath": 2804,
      "logging": 2805,
      "Py": 2806,
      "amb": 2807,
      "ast": 2808,
      "num_": 2809,
      "single": 2810,
      "ted_": 2811,
      "viron": 2812,
      "mod": 2813,
      "local": 2814,
      "ures": 2815,
      "edge": 2816,
      "represen": 2817,
      "while": 2818,
      "last": 2819,
      "numpy": 2820,
      "To": 2821,
      "tf": 2822,
      "old": 2823,
      "_p": 2824,
      "errors": 2825,
      "save": 2826,
      "location": 2827,
      "yn": 2828,
      "matrix": 2829,
      "encode": 2830,
      "columns": 2831,
      "err": 2832,
      "gh": 2833,
      "tional": 2834,
      "non": 2835,
      "output_": 2836,
      "olu": 2837,
      "m_": 2838,
      "-------": 2839,
      "plot": 2840,
      "wait": 2841,
      "ify": 2842,
      "Conver": 2843,
      "was": 2844,
      "API": 2845,
      "glob": 2846,
      "fla": 2847,
      "yield": 2848,
      ")))": 2849,
      "ents": 2850,
      "case": 2851,
      "out_": 2852,
      "iled": 2853,
      "dow": 2854,
      "_value": 2855,
      "handler": 2856,
      "LE": 2857,
      "://": 2858,
      "full": 2859,
      "password": 2860,
      "wrap": 2861,
      "At": 2862,
      "ched": 2863,
      "types": 2864,
      "then": 2865,
      "][": 2866,
      "utils": 2867,
      "sequence": 2868,
      "]:": 2869,
      "mer": 2870,
      "play": 2871,
      "network": 2872,
      "space": 2873,
      "ain": 2874,
      "termin": 2875,
      "configuration": 2876,
      "enco": 2877,
      "pattern": 2878,
      "Up": 2879,
      "stop": 2880,
      "Gen": 2881,
      "start_": 2882,
      "og": 2883,
      "lower": 2884,
      "_pro": 2885,
      "it_": 2886,
      "URL": 2887,
      "random": 2888,
      "Run": 2889,
      "description": 2890,
      "avail": 2891,
      "mail": 2892,
      "idx": 2893,
      "const": 2894,
      "meta": 2895,
      "thread": 2896,
      "move": 2897,
      "file_": 2898,
      "bre": 2899,
      "cho": 2900,
      "rc": 2901,
      "ating": 2902,
      "environ": 2903,
      "mask": 2904,
      "ccess": 2905,
      "callback": 2906,
      "ish": 2907,
      "assert": 2908,
      "sets": 2909,
      "tot": 2910,
      "batch": 2911,
      "same": 2912,
      "zer": 2913,
      "HT": 2914,
      "ambda": 2915,
      "ght": 2916,
      "Comp": 2917,
      "inte": 2918,
      "pay": 2919,
      "tool": 2920,
      "now": 2921,
      "seg": 2922,
      "})": 2923,
      "python": 2924,
      "opts": 2925,
      "metri": 2926,
      "origin": 2927,
      "SE": 2928,
      "AN": 2929,
      "ize": 2930,
      "ect_": 2931,
      "mark": 2932,
      "need": 2933,
      "_index": 2934,
      "stamp": 2935,
      "cer": 2936,
      "warning": 2937,
      "chunk": 2938,
      "initi": 2939,
      "pas": 2940,
      "uri": 2941,
      "compon": 2942,
      "limit": 2943,
      "position": 2944,
      "ves": 2945,
      "empty": 2946,
      "ft": 2947,
      "ual": 2948,
      "plu": 2949,
      "close": 2950,
      "uid": 2951,
      "FI": 2952,
      "est": 2953,
      "access": 2954,
      "document": 2955,
      "information": 2956,
      "database": 2957,
      "stack": 2958,
      "collection": 2959,
      "sions": 2960,
      "ign": 2961,
      "resh": 2962,
      "(*": 2963,
      "schema": 2964,
      "_de": 2965,
      "rule": 2966,
      "project": 2967,
      "lambda": 2968,
      "Mo": 2969,
      "depend": 2970,
      "available": 2971,
      "ped": 2972,
      "returned": 2973,
      "S_": 2974,
      "rel": 2975,
      "nd": 2976,
      "cent": 2977,
      "you": 2978,
      "zip": 2979,
      "IP": 2980,
      "html": 2981,
      "ash": 2982,
      "AC": 2983,
      "after": 2984,
      "tags": 2985,
      "Read": 2986,
      "twe": 2987,
      "ate_": 2988,
      "abs": 2989,
      "ML": 2990,
      "conf": 2991,
      "region": 2992,
      "attributes": 2993,
      "domain": 2994,
      "already": 2995,
      "rou": 2996,
      "wise": 2997,
      "xml": 2998,
      "br": 2999,
      "ager": 3000,
      "Str": 3001,
      "all_": 3002,
      "provided": 3003,
      "enum": 3004,
      "username": 3005,
      "include": 3006,
      "buff": 3007,
      "sk": 3008,
      "exc": 3009,
      "based": 3010,
      "'))": 3011,
      "g_": 3012,
      "dest": 3013,
      "cell": 3014,
      "ple": 3015,
      "defin": 3016,
      "parse_": 3017,
      "====": 3018,
      "ation_": 3019,
      "TI": 3020,
      "ment_": 3021,
      "pk": 3022,
      "ell": 3023,
      "imum": 3024,
      "break": 3025,
      "ous": 3026,
      "Example": 3027,
      "plugin": 3028,
      "tail": 3029,
      "20": 3030,
      "req": 3031,
      "pect": 3032,
      ")]": 3033,
      "vid": 3034,
      "[-": 3035,
      "labels": 3036,
      "TP": 3037,
      "post": 3038,
      "ake": 3039,
      "JS": 3040,
      "Po": 3041,
      "step": 3042,
      "encoding": 3043,
      "next": 3044,
      "ill": 3045,
      "TO": 3046,
      "lient": 3047,
      "ids": 3048,
      "fier": 3049,
      "Ob": 3050,
      "Not": 3051,
      "before": 3052,
      "default_": 3053,
      "look": 3054,
      "getattr": 3055,
      "part": 3056,
      "int_": 3057,
      "reference": 3058,
      "Ra": 3059,
      "check_": 3060,
      "Ch": 3061,
      "in_": 3062,
      "igno": 3063,
      "64": 3064,
      "ili": 3065,
      "rows": 3066,
      "our": 3067,
      "input_": 3068,
      "cord": 3069,
      "exten": 3070,
      "Time": 3071,
      "more": 3072,
      "starts": 3073,
      "specific": 3074,
      "salt": 3075,
      "``.": 3076,
      "mary": 3077,
      "decode": 3078,
      "there": 3079,
      "pair": 3080,
      "Me": 3081,
      "ound": 3082,
      "'%": 3083,
      "DO": 3084,
      "show": 3085,
      "32": 3086,
      "properties": 3087,
      "ess": 3088,
      "LI": 3089,
      "12": 3090,
      "ful": 3091,
      "etch": 3092,
      "cat": 3093,
      "vector": 3094,
      "just": 3095,
      "_C": 3096,
      ")):": 3097,
      "seq": 3098,
      "box": 3099,
      "SI": 3100,
      "flow": 3101,
      "TE": 3102,
      "containing": 3103,
      "v_": 3104,
      "xy": 3105,
      "100": 3106,
      "profile": 3107,
      "example": 3108,
      "class_": 3109,
      "JSON": 3110,
      "Defa": 3111,
      "field_": 3112,
      "timestamp": 3113,
      "even": 3114,
      "lang": 3115,
      "tween": 3116,
      "unt": 3117,
      "sty": 3118,
      "passed": 3119,
      "on_": 3120,
      "Do": 3121,
      "data_": 3122,
      "cation": 3123,
      "zone": 3124,
      "window": 3125,
      "feature": 3126,
      "layer": 3127,
      "byte": 3128,
      "payload": 3129,
      "ole": 3130,
      "http": 3131,
      "end_": 3132,
      "two": 3133,
      "Update": 3134,
      "between": 3135,
      "ank": 3136,
      "We": 3137,
      "active": 3138,
      "dimen": 3139,
      "lication": 3140,
      "fail": 3141,
      "ative": 3142,
      "mapping": 3143,
      "den": 3144,
      "TypeError": 3145,
      "style": 3146,
      "ud": 3147,
      "suppor": 3148,
      "may": 3149,
      "ustom": 3150,
      "variables": 3151,
      "or_": 3152,
      "Bu": 3153,
      "gram": 3154,
      "RO": 3155,
      "vo": 3156,
      "'),": 3157,
      "site": 3158,
      "rt": 3159,
      "core": 3160,
      "clust": 3161,
      "mean": 3162,
      "text_": 3163,
      "Config": 3164,
      "-+": 3165,
      "side": 3166,
      "seconds": 3167,
      "pp": 3168,
      "generate": 3169,
      "tx": 3170,
      "adi": 3171,
      "email": 3172,
      "syn": 3173,
      "than": 3174,
      "see": 3175,
      "sorted": 3176,
      "nown": 3177,
      "send": 3178,
      "Path": 3179,
      "asyn": 3180,
      "success": 3181,
      "fn": 3182,
      "ryp": 3183,
      "Convert": 3184,
      "stor": 3185,
      "tmp": 3186,
      "feat": 3187,
      "gor": 3188,
      "id_": 3189,
      "']:": 3190,
      "ression": 3191,
      "loop": 3192,
      "chain": 3193,
      "Hand": 3194,
      "some": 3195,
      "desc": 3196,
      "},": 3197,
      "auto": 3198,
      "sq": 3199,
      "ear": 3200,
      "ker": 3201,
      "_names": 3202,
      "unique": 3203,
      "SS": 3204,
      "keyword": 3205,
      "annot": 3206,
      "dataset": 3207,
      "elements": 3208,
      "conn": 3209,
      "dump": 3210,
      "target_": 3211,
      "required": 3212,
      "build": 3213,
      "LOG": 3214,
      "stdo": 3215,
      "mt": 3216,
      "Parse": 3217,
      "tifi": 3218,
      "create_": 3219,
      "Frame": 3220,
      "force": 3221,
      "remote": 3222,
      "us_": 3223,
      "a_": 3224,
      "medi": 3225,
      "Qu": 3226,
      "container": 3227,
      "Col": 3228,
      "mbol": 3229,
      "connect": 3230,
      "groups": 3231,
      "namespace": 3232,
      "defined": 3233,
      "dim": 3234,
      "left": 3235,
      "role": 3236,
      "requests": 3237,
      "sn": 3238,
      "buffer": 3239,
      "lease": 3240,
      "property": 3241,
      ">=": 3242,
      "defini": 3243,
      "metho": 3244,
      "expec": 3245,
      "Invalid": 3246,
      "unicode": 3247,
      "vent": 3248,
      "Load": 3249,
      "right": 3250,
      "IO": 3251,
      "contro": 3252,
      "proto": 3253,
      "l_": 3254,
      "strings": 3255,
      "'].": 3256,
      "rect": 3257,
      "thing": 3258,
      "hist": 3259,
      "ctx": 3260,
      "_d": 3261,
      "ndarray": 3262,
      "Request": 3263,
      "'\\": 3264,
      "scale": 3265,
      "comment": 3266,
      "25": 3267,
      "samples": 3268,
      "Cal": 3269,
      "load_": 3270,
      "weigh": 3271,
      "Raise": 3272,
      "author": 3273,
      "Com": 3274,
      "paths": 3275,
      "Python": 3276,
      "-+-+": 3277,
      "delta": 3278,
      "iti": 3279,
      "socket": 3280,
      "entity": 3281,
      "cf": 3282,
      "true": 3283,
      "stdout": 3284,
      "last_": 3285,
      "series": 3286,
      "bar": 3287,
      "book": 3288,
      "unit": 3289,
      "Generate": 3290,
      "Per": 3291,
      "cursor": 3292,
      "GE": 3293,
      "startswith": 3294,
      "sible": 3295,
      "D_": 3296,
      "cryp": 3297,
      "parts": 3298,
      "height": 3299,
      "Al": 3300,
      "imple": 3301,
      "sec": 3302,
      "condi": 3303,
      "help": 3304,
      "bit": 3305,
      "created": 3306,
      "ency": 3307,
      "addr": 3308,
      "Wri": 3309,
      "ends": 3310,
      "Au": 3311,
      "whether": 3312,
      "Ge": 3313,
      "gets": 3314,
      "been": 3315,
      "verbo": 3316,
      "16": 3317,
      "`,": 3318,
      "UT": 3319,
      "angle": 3320,
      "merge": 3321,
      "Index": 3322,
      "ome": 3323,
      "}'.": 3324,
      "diff": 3325,
      "charact": 3326,
      "Dict": 3327,
      "ith": 3328,
      "_config": 3329,
      "verse": 3330,
      ".\")": 3331,
      ".')": 3332,
      "']['": 3333,
      "trie": 3334,
      "tation": 3335,
      "utf": 3336,
      "CO": 3337,
      "ead": 3338,
      "HTTP": 3339,
      "PO": 3340,
      "Attribu": 3341,
      "ignore": 3342,
      "day": 3343,
      "very": 3344,
      "anch": 3345,
      "<=": 3346,
      "manager": 3347,
      ":]": 3348,
      "distance": 3349,
      "String": 3350,
      "git": 3351,
      "events": 3352,
      "stats": 3353,
      "ose": 3354,
      "coordin": 3355,
      "ither": 3356,
      "alog": 3357,
      "symbol": 3358,
      "vices": 3359,
      "des": 3360,
      "enable": 3361,
      "features": 3362,
      "execute": 3363,
      "_token": 3364,
      "NO": 3365,
      "train": 3366,
      "Fa": 3367,
      "depth": 3368,
      "oci": 3369,
      "custom": 3370,
      "uage": 3371,
      "Valid": 3372,
      "find_": 3373,
      "called": 3374,
      "missing": 3375,
      "org": 3376,
      "mi": 3377,
      "ner": 3378,
      "build_": 3379,
      "olume": 3380,
      "eval": 3381,
      "ants": 3382,
      "alle": 3383,
      "operation": 3384,
      "hasattr": 3385,
      "_r": 3386,
      "proj": 3387,
      "transform": 3388,
      "mission": 3389,
      "NA": 3390,
      "_str": 3391,
      "added": 3392,
      "pli": 3393,
      "_string": 3394,
      "ked": 3395,
      "\"):": 3396,
      "saction": 3397,
      "\"%": 3398,
      "alized": 3399,
      "cts": 3400,
      "Num": 3401,
      "produ": 3402,
      "integer": 3403,
      "sin": 3404,
      "UL": 3405,
      "{}'.": 3406,
      "matches": 3407,
      "running": 3408,
      "event_": 3409,
      "update_": 3410,
      "App": 3411,
      "identifier": 3412,
      "my": 3413,
      "Arg": 3414,
      "(**": 3415,
      "grid": 3416,
      "ins": 3417,
      "factor": 3418,
      "script": 3419,
      "KeyError": 3420,
      "contents": 3421,
      "TY": 3422,
      "resol": 3423,
      "pool": 3424,
      "__name": 3425,
      "trieve": 3426,
      "bl": 3427,
      "note": 3428,
      "_call": 3429,
      "bound": 3430,
      "enumerate": 3431,
      "rece": 3432,
      "sort": 3433,
      "disable": 3434,
      "Call": 3435,
      "them": 3436,
      "trace": 3437,
      "endpoint": 3438,
      "for_": 3439,
      "patch": 3440,
      "existing": 3441,
      "read_": 3442,
      "Object": 3443,
      "member": 3444,
      "_ids": 3445,
      "__name__": 3446,
      "children": 3447,
      "red_": 3448,
      "decor": 3449,
      "anal": 3450,
      "messages": 3451,
      "ility": 3452,
      "ns": 3453,
      "ries": 3454,
      "repo": 3455,
      "account": 3456,
      "models": 3457,
      "cap": 3458,
      "derr": 3459,
      "{}\".": 3460,
      "Respon": 3461,
      "ING": 3462,
      "multiple": 3463,
      "language": 3464,
      "storage": 3465,
      "defaults": 3466,
      "ext_": 3467,
      "apply": 3468,
      "As": 3469,
      "pipe": 3470,
      "equ": 3471,
      "list_": 3472,
      "scope": 3473,
      "stderr": 3474,
      "https": 3475,
      "Optional": 3476,
      "Raises": 3477,
      "]]": 3478,
      "associ": 3479,
      "peri": 3480,
      "FA": 3481,
      "Inst": 3482,
      "'/": 3483,
      "follow": 3484,
      "sent": 3485,
      "here": 3486,
      "assign": 3487,
      "ude": 3488,
      "attrs": 3489,
      "Attribute": 3490,
      "generator": 3491,
      "rest": 3492,
      "clean": 3493,
      "mit": 3494,
      "way": 3495,
      "ay": 3496,
      "PE": 3497,
      "total": 3498,
      "upper": 3499,
      "old_": 3500,
      "query_": 3501,
      "flu": 3502,
      "_time": 3503,
      "application": 3504,
      "zero": 3505,
      "ice": 3506,
      "cause": 3507,
      "edi": 3508,
      "Remove": 3509,
      "calcul": 3510,
      "exceptions": 3511,
      "Cont": 3512,
      "User": 3513,
      "src": 3514,
      "AD": 3515,
      "also": 3516,
      "bi": 3517,
      "classes": 3518,
      "rough": 3519,
      "term": 3520,
      "mand": 3521,
      "binary": 3522,
      "Argument": 3523,
      "'{": 3524,
      "vals": 3525,
      "log_": 3526,
      "correspon": 3527,
      "DataFrame": 3528,
      "status_": 3529,
      "UN": 3530,
      "indices": 3531,
      "r_": 3532,
      "invalid": 3533,
      "gre": 3534,
      "Default": 3535,
      "verbose": 3536,
      "complete": 3537,
      "tails": 3538,
      "polic": 3539,
      "fs": 3540,
      "AS": 3541,
      "On": 3542,
      "web": 3543,
      "_state": 3544,
      "skip": 3545,
      "separ": 3546,
      "Response": 3547,
      "ical": 3548,
      "fer": 3549,
      "ization": 3550,
      "Ver": 3551,
      "tensor": 3552,
      "iterable": 3553,
      "olean": 3554,
      "med": 3555,
      "_version": 3556,
      "volume": 3557,
      "otherwise": 3558,
      "interface": 3559,
      "Bo": 3560,
      "supported": 3561,
      "failed": 3562,
      "Node": 3563,
      "environment": 3564,
      "exit": 3565,
      "raises": 3566,
      "structure": 3567,
      "transaction": 3568,
      "year": 3569,
      "impor": 3570,
      "display": 3571,
      "tokens": 3572,
      "own": 3573,
      "metric": 3574,
      "don": 3575,
      "signature": 3576,
      "DB": 3577,
      "sli": 3578,
      "gest": 3579,
      "Ele": 3580,
      "min_": 3581,
      "either": 3582,
      "_types": 3583,
      "second": 3584,
      "wrapper": 3585,
      "alias": 3586,
      "Log": 3587,
      "changes": 3588,
      "Dele": 3589,
      "DI": 3590,
      "previ": 3591,
      "entries": 3592,
      "Or": 3593,
      "gex": 3594,
      "_map": 3595,
      "suf": 3596,
      "Array": 3597,
      "extend": 3598,
      "through": 3599,
      "_h": 3600,
      "convert": 3601,
      "Make": 3602,
      "content_": 3603,
      "Conne": 3604,
      "object_": 3605,
      "Creates": 3606,
      "{\"": 3607,
      "folder": 3608,
      "definition": 3609,
      "weights": 3610,
      "MA": 3611,
      "six": 3612,
      "It": 3613,
      "atta": 3614,
      "math": 3615,
      "dimension": 3616,
      "lookup": 3617,
      "ypes": 3618,
      "fetch": 3619,
      "mented": 3620,
      "State": 3621,
      "ving": 3622,
      "_class": 3623,
      "####": 3624,
      "counts": 3625,
      "buf": 3626,
      "direct": 3627,
      "See": 3628,
      "_args": 3629,
      "ribu": 3630,
      "stand": 3631,
      "loa": 3632,
      "resp": 3633,
      "port_": 3634,
      "appro": 3635,
      "contains": 3636,
      "uuid": 3637,
      "tim": 3638,
      "client_": 3639,
      "]))": 3640,
      "signal": 3641,
      "align": 3642,
      "0x": 3643,
      "MP": 3644,
      "tools": 3645,
      "resources": 3646,
      "tt": 3647,
      "Sub": 3648,
      "').": 3649,
      "_P": 3650,
      "ived": 3651,
      "cluster": 3652,
      "Dis": 3653,
      "alph": 3654,
      "expected": 3655,
      "units": 3656,
      "dat": 3657,
      "Cl": 3658,
      "known": 3659,
      "By": 3660,
      "redenti": 3661,
      "super": 3662,
      "Process": 3663,
      "fra": 3664,
      "acti": 3665,
      "next_": 3666,
      "hook": 3667,
      "_m": 3668,
      "functions": 3669,
      "01": 3670,
      "render": 3671,
      "lish": 3672,
      "dict_": 3673,
      "TODO": 3674,
      ")[": 3675,
      "accep": 3676,
      "extension": 3677,
      "expression": 3678,
      "roo": 3679,
      "ial": 3680,
      "prog": 3681,
      "sition": 3682,
      "how": 3683,
      "Ac": 3684,
      "pid": 3685,
      "pd": 3686,
      "and_": 3687,
      "libr": 3688,
      "flags": 3689,
      "global": 3690,
      "Calcul": 3691,
      "Use": 3692,
      "Star": 3693,
      "thresh": 3694,
      "anti": 3695,
      "Note": 3696,
      "b_": 3697,
      "arti": 3698,
      "parent_": 3699,
      "disk": 3700,
      "[:,": 3701,
      "Mess": 3702,
      "Message": 3703,
      "Client": 3704,
      "user_": 3705,
      "filters": 3706,
      "sist": 3707,
      "component": 3708,
      "fname": 3709,
      "200": 3710,
      "times": 3711,
      "setup": 3712,
      "ery": 3713,
      "fill": 3714,
      "Pre": 3715,
      "Gets": 3716,
      "modules": 3717,
      "_code": 3718,
      "tem": 3719,
      "memory": 3720,
      "possible": 3721,
      "Iter": 3722,
      "cies": 3723,
      "pix": 3724,
      "within": 3725,
      "ular": 3726,
      "Text": 3727,
      "requ": 3728,
      "about": 3729,
      "dered": 3730,
      "suffix": 3731,
      "dt": 3732,
      "ef": 3733,
      "ware": 3734,
      "cro": 3735,
      "11": 3736,
      "vate": 3737,
      "public": 3738,
      "track": 3739,
      "Find": 3740,
      "Gra": 3741,
      "instances": 3742,
      "partition": 3743,
      "ters": 3744,
      "async": 3745,
      "Auth": 3746,
      "fit": 3747,
      "hex": 3748,
      "present": 3749,
      "authenti": 3750,
      "wer": 3751,
      "EL": 3752,
      "dev": 3753,
      "commit": 3754,
      "install": 3755,
      "dro": 3756,
      "await": 3757,
      "ack": 3758,
      "validate": 3759,
      "Fun": 3760,
      "prob": 3761,
      "take": 3762,
      "make_": 3763,
      "ply": 3764,
      "they": 3765,
      "less": 3766,
      "their": 3767,
      "eded": 3768,
      "line_": 3769,
      "cover": 3770,
      "Model": 3771,
      "flag": 3772,
      "exclude": 3773,
      "}\".": 3774,
      "ride": 3775,
      "relation": 3776,
      ".\"": 3777,
      "compute": 3778,
      "ics": 3779,
      "cols": 3780,
      "score": 3781,
      "_inter": 3782,
      "FF": 3783,
      "Format": 3784,
      "'-": 3785,
      "sive": 3786,
      "ton": 3787,
      "Gi": 3788,
      "lative": 3789,
      "inputs": 3790,
      "gine": 3791,
      "ont": 3792,
      "wit": 3793,
      "send_": 3794,
      "provid": 3795,
      "distribu": 3796,
      "radi": 3797,
      "as_": 3798,
      "]['": 3799,
      "uture": 3800,
      "safe": 3801,
      "until": 3802,
      "run_": 3803,
      "quo": 3804,
      "correct": 3805,
      "condition": 3806,
      "ld": 3807,
      "methods": 3808,
      "ors": 3809,
      "handl": 3810,
      "prec": 3811,
      "commands": 3812,
      "v1": 3813,
      "ati": 3814,
      "``,": 3815,
      "Number": 3816,
      "boolean": 3817,
      "CH": 3818,
      "bits": 3819,
      "Write": 3820,
      "iss": 3821,
      "Exec": 3822,
      "want": 3823,
      "tab": 3824,
      "actions": 3825,
      "has_": 3826,
      "words": 3827,
      "download": 3828,
      "f_": 3829,
      "Found": 3830,
      "ution": 3831,
      "poly": 3832,
      "ason": 3833,
      "maximum": 3834,
      "encies": 3835,
      "AB": 3836,
      "Fil": 3837,
      "use_": 3838,
      "recur": 3839,
      "Element": 3840,
      "Event": 3841,
      "gn": 3842,
      "loaded": 3843,
      "matching": 3844,
      "Stat": 3845,
      "ave": 3846,
      "cm": 3847,
      "inclu": 3848,
      "callable": 3849,
      "time_": 3850,
      "by_": 3851,
      "associated": 3852,
      "\\\\": 3853,
      "gory": 3854,
      "Ses": 3855,
      ".,": 3856,
      "representation": 3857,
      "original": 3858,
      "high": 3859,
      "stry": 3860,
      "olution": 3861,
      "edges": 3862,
      "changed": 3863,
      "Query": 3864,
      "Wh": 3865,
      "AG": 3866,
      "t_id": 3867,
      "ending": 3868,
      "under": 3869,
      "expi": 3870,
      "ie": 3871,
      "termine": 3872,
      "car": 3873,
      "yam": 3874,
      "scan": 3875,
      "corresponding": 3876,
      "images": 3877,
      "report": 3878,
      "print_": 3879,
      "clear": 3880,
      "branch": 3881,
      "lot": 3882,
      "TR": 3883,
      "OS": 3884,
      "txt": 3885,
      "lear": 3886,
      "amo": 3887,
      "proxy": 3888,
      "operator": 3889,
      "_create": 3890,
      "boun": 3891,
      "_from_": 3892,
      "arr": 3893,
      "library": 3894,
      "Given": 3895,
      "done": 3896,
      "Session": 3897,
      "relative": 3898,
      "ily": 3899,
      "shell": 3900,
      "summary": 3901,
      "month": 3902,
      "require": 3903,
      "utes": 3904,
      "dri": 3905,
      "vars": 3906,
      "cast": 3907,
      "sym": 3908,
      "intern": 3909,
      "ener": 3910,
      "Extra": 3911,
      "dot": 3912,
      "axes": 3913,
      "ES": 3914,
      "let": 3915,
      "Build": 3916,
      "KE": 3917,
      "flat": 3918,
      "CON": 3919,
      "proces": 3920,
      "segment": 3921,
      "bro": 3922,
      "instead": 3923,
      "ination": 3924,
      "std": 3925,
      "]):": 3926,
      "every": 3927,
      "Trans": 3928,
      "null": 3929,
      "Inter": 3930,
      "protocol": 3931,
      "andas": 3932,
      "ls": 3933,
      "addi": 3934,
      "interval": 3935,
      "without": 3936,
      "_format": 3937,
      "coordinates": 3938,
      "local_": 3939,
      "decorator": 3940,
      "_files": 3941,
      "components": 3942,
      "path_": 3943,
      "Regi": 3944,
      "Gro": 3945,
      "users": 3946,
      "mach": 3947,
      ")),": 3948,
      "details": 3949,
      "sr": 3950,
      "ured": 3951,
      "route": 3952,
      "t__": 3953,
      "TH": 3954,
      "mu": 3955,
      "kind": 3956,
      "DF": 3957,
      "issue": 3958,
      "CLI": 3959,
      "retry": 3960,
      "Field": 3961,
      "loads": 3962,
      "Failed": 3963,
      "prior": 3964,
      "NAME": 3965,
      "andid": 3966,
      "Base": 3967,
      "forms": 3968,
      "\"\\": 3969,
      "wd": 3970,
      "XML": 3971,
      "na": 3972,
      "parsed": 3973,
      "Handle": 3974,
      "ferent": 3975,
      "records": 3976,
      "40": 3977,
      "_obj": 3978,
      "widget": 3979,
      "dec": 3980,
      "fp": 3981,
      "previous": 3982,
      "Imp": 3983,
      "dete": 3984,
      "_count": 3985,
      "adding": 3986,
      "=[": 3987,
      "ically": 3988,
      "click": 3989,
      "subprocess": 3990,
      "dr": 3991,
      "sched": 3992,
      "direction": 3993,
      "write_": 3994,
      "s_to_": 3995,
      "weight": 3996,
      "gorith": 3997,
      "bas": 3998,
      "Image": 3999,
      "SO": 4000,
      "plat": 4001,
      "Group": 4002,
      "type_": 4003,
      "states": 4004,
      "tz": 4005,
      "most": 4006,
      "ternal": 4007,
      "Input": 4008,
      "_request": 4009,
      "serializ": 4010,
      "Sets": 4011,
      "because": 4012,
      "execut": 4013,
      "Item": 4014,
      "({": 4015,
      "QL": 4016,
      "Any": 4017,
      "mpl": 4018,
      "AttributeError": 4019,
      "mesh": 4020,
      "links": 4021,
      "policy": 4022,
      "filepath": 4023,
      "backend": 4024,
      "subject": 4025,
      "ctypes": 4026,
      "bot": 4027,
      "15": 4028,
      "both": 4029,
      "being": 4030,
      "different": 4031,
      "doesn": 4032,
      "ix": 4033,
      "status_code": 4034,
      "img": 4035,
      "'][": 4036,
      "since": 4037,
      "Context": 4038,
      "vm": 4039,
      "named": 4040,
      "Open": 4041,
      "credenti": 4042,
      ":`~": 4043,
      "Initi": 4044,
      "register": 4045,
      "rate": 4046,
      "sity": 4047,
      "ong": 4048,
      "vide": 4049,
      "Clo": 4050,
      "posit": 4051,
      "Command": 4052,
      "snap": 4053,
      "real": 4054,
      "US": 4055,
      "of_": 4056,
      "regex": 4057,
      "Info": 4058,
      "redu": 4059,
      "Sy": 4060,
      "with_": 4061,
      "sol": 4062,
      "FAUL": 4063,
      "engine": 4064,
      "tile": 4065,
      "========": 4066,
      "_client": 4067,
      "yaml": 4068,
      "ared": 4069,
      "sep": 4070,
      "ensure": 4071,
      "\"{": 4072,
      "bucket": 4073,
      "DEFAUL": 4074,
      "i_": 4075,
      "Spec": 4076,
      "combin": 4077,
      "Instance": 4078,
      "mut": 4079,
      "24": 4080,
      "hy": 4081,
      "'*": 4082,
      "IC": 4083,
      "uplic": 4084,
      "sid": 4085,
      "slice": 4086,
      "Pr": 4087,
      "helper": 4088,
      "tax": 4089,
      "ality": 4090,
      "\"],": 4091,
      "constra": 4092,
      "cker": 4093,
      "center": 4094,
      "pixel": 4095,
      "docs": 4096,
      "your": 4097,
      "ized": 4098,
      "sur": 4099,
      "indic": 4100,
      "emb": 4101,
      "AM": 4102,
      "cu": 4103,
      "filter_": 4104,
      "long": 4105,
      "select": 4106,
      "indent": 4107,
      "pairs": 4108,
      "Out": 4109,
      "Sto": 4110,
      "cook": 4111,
      "ow": 4112,
      "crip": 4113,
      "root_": 4114,
      "gate": 4115,
      "Map": 4116,
      "archive": 4117,
      "TION": 4118,
      "ER_": 4119,
      "ww": 4120,
      "gy": 4121,
      "her": 4122,
      "release": 4123,
      "meas": 4124,
      "Man": 4125,
      "cr": 4126,
      "pository": 4127,
      "dirname": 4128,
      "Adds": 4129,
      "sim": 4130,
      "MO": 4131,
      "cannot": 4132,
      "Parser": 4133,
      "eff": 4134,
      "error_": 4135,
      "tasks": 4136,
      "such": 4137,
      "total_": 4138,
      "pare": 4139,
      "ports": 4140,
      "/{": 4141,
      "99": 4142,
      "Table": 4143,
      "bed": 4144,
      "Function": 4145,
      "needed": 4146,
      "following": 4147,
      "Compute": 4148,
      "ink": 4149,
      "ship": 4150,
      "counter": 4151,
      "older": 4152,
      "ic_": 4153,
      "sv": 4154,
      "roll": 4155,
      "class__": 4156,
      "sm": 4157,
      "trig": 4158,
      "alpha": 4159,
      "Hel": 4160,
      "attach": 4161,
      "Dec": 4162,
      "bers": 4163,
      "Runtime": 4164,
      "prop": 4165,
      "ability": 4166,
      "pc": 4167,
      "raw_": 4168,
      "hape": 4169,
      "ensor": 4170,
      "agg": 4171,
      "zeros": 4172,
      "analys": 4173,
      "attemp": 4174,
      "packages": 4175,
      "CS": 4176,
      "Tra": 4177,
      "voc": 4178,
      "stra": 4179,
      "keep": 4180,
      "%(": 4181,
      "X_": 4182,
      "blocks": 4183,
      "come": 4184,
      "__class__": 4185,
      "frequ": 4186,
      "file_path": 4187,
      "gorithm": 4188,
      "Send": 4189,
      "could": 4190,
      "verti": 4191,
      "login": 4192,
      "vision": 4193,
      "Delete": 4194,
      "cri": 4195,
      "nest": 4196,
      "plan": 4197,
      "30": 4198,
      "lar": 4199,
      "channels": 4200,
      "Series": 4201,
      "'{}": 4202,
      "_length": 4203,
      "warn": 4204,
      "constru": 4205,
      "category": 4206,
      "reverse": 4207,
      "span": 4208,
      "expr": 4209,
      "ways": 4210,
      "destination": 4211,
      "common": 4212,
      "lation": 4213,
      "ferences": 4214,
      "GET": 4215,
      "kernel": 4216,
      "fmt": 4217,
      "fici": 4218,
      "removed": 4219,
      "representing": 4220,
      "mid": 4221,
      "ision": 4222,
      "enabled": 4223,
      "cp": 4224,
      "atom": 4225,
      "dumps": 4226,
      "vl": 4227,
      "ster_": 4228,
      "\"])": 4229,
      "Resource": 4230,
      "gene": 4231,
      "LOGG": 4232,
      "Graph": 4233,
      "uses": 4234,
      "what": 4235,
      "_n": 4236,
      "lists": 4237,
      "hostname": 4238,
      "witch": 4239,
      "Class": 4240,
      "platform": 4241,
      "coords": 4242,
      "ward": 4243,
      "Retrieve": 4244,
      "virt": 4245,
      "dims": 4246,
      "occur": 4247,
      "rid": 4248,
      "machine": 4249,
      "amount": 4250,
      "evalu": 4251,
      "_params": 4252,
      "publish": 4253,
      "stored": 4254,
      "steps": 4255,
      "project_": 4256,
      "updated": 4257,
      "chema": 4258,
      "csv": 4259,
      "-+-+-+-+": 4260,
      "relate": 4261,
      "opt": 4262,
      "('\\": 4263,
      "ogle": 4264,
      "=(": 4265,
      "cip": 4266,
      "packet": 4267,
      "fy": 4268,
      "Var": 4269,
      "Calculate": 4270,
      "k_": 4271,
      "compile": 4272,
      "cked": 4273,
      "pandas": 4274,
      "vely": 4275,
      "Net": 4276,
      "simple": 4277,
      "EC": 4278,
      ".'": 4279,
      "50": 4280,
      "Sh": 4281,
      "ick": 4282,
      "proble": 4283,
      "alled": 4284,
      "triev": 4285,
      "addres": 4286,
      "Date": 4287,
      "targets": 4288,
      "lap": 4289,
      "character": 4290,
      "hour": 4291,
      "ango": 4292,
      "POST": 4293,
      "factory": 4294,
      "_to": 4295,
      "hi": 4296,
      "period": 4297,
      "stri": 4298,
      "EX": 4299,
      "numer": 4300,
      "notifi": 4301,
      "Start": 4302,
      "aries": 4303,
      "gu": 4304,
      "foo": 4305,
      "pad": 4306,
      "Des": 4307,
      "cfg": 4308,
      "encryp": 4309,
      "duration": 4310,
      "control": 4311,
      "board": 4312,
      "secret": 4313,
      "distribution": 4314,
      "Mod": 4315,
      "Remo": 4316,
      "begin": 4317,
      "Handler": 4318,
      "SP": 4319,
      "short": 4320,
      "first_": 4321,
      "sle": 4322,
      "agent": 4323,
      "optim": 4324,
      "_node": 4325,
      "sources": 4326,
      "master": 4327,
      "sql": 4328,
      "Connection": 4329,
      "obser": 4330,
      "ded_": 4331,
      "Content": 4332,
      "dependencies": 4333,
      "allowed": 4334,
      "OP": 4335,
      "selection": 4336,
      "colors": 4337,
      "topic": 4338,
      "TER": 4339,
      "60": 4340,
      "insert": 4341,
      "worker": 4342,
      "plt": 4343,
      "Filter": 4344,
      "0000": 4345,
      "_values": 4346,
      "future": 4347,
      "t_name": 4348,
      "poch": 4349,
      "Examples": 4350,
      "ater": 4351,
      "characters": 4352,
      "rules": 4353,
      "pick": 4354,
      "metrics": 4355,
      "_t": 4356,
      "leg": 4357,
      "vity": 4358,
      "descriptor": 4359,
      "process_": 4360,
      "connected": 4361,
      "tries": 4362,
      "candid": 4363,
      "v2": 4364,
      "_idx": 4365,
      "usage": 4366,
      "Search": 4367,
      "('/": 4368,
      "grade": 4369,
      "Meth": 4370,
      "finish": 4371,
      "selected": 4372,
      "ases": 4373,
      "iterator": 4374,
      "cording": 4375,
      "bounds": 4376,
      "threshold": 4377,
      "spa": 4378,
      "basename": 4379,
      "support": 4380,
      "RuntimeError": 4381,
      "outputs": 4382,
      "minimum": 4383,
      "fully": 4384,
      "dirs": 4385,
      "ift": 4386,
      "arrays": 4387,
      "ATE": 4388,
      "nan": 4389,
      "ences": 4390,
      "writer": 4391,
      "curity": 4392,
      "lint": 4393,
      "upload": 4394,
      "tick": 4395,
      "Cur": 4396,
      "these": 4397,
      "pkg": 4398,
      "standard": 4399,
      "_input": 4400,
      "hparams": 4401,
      "shot": 4402,
      "oid": 4403,
      "NotFound": 4404,
      "ground": 4405,
      "visi": 4406,
      "private": 4407,
      "algorithm": 4408,
      "Only": 4409,
      "driver": 4410,
      "dic": 4411,
      "processing": 4412,
      "SC": 4413,
      "assu": 4414,
      "stered": 4415,
      "olute": 4416,
      "[(": 4417,
      "decl": 4418,
      "Y_": 4419,
      "result_": 4420,
      "cloud": 4421,
      "requested": 4422,
      "many": 4423,
      "absolute": 4424,
      "reen": 4425,
      "Checks": 4426,
      "scalar": 4427,
      "endswith": 4428,
      "reader": 4429,
      ":%": 4430,
      "confi": 4431,
      "_cache": 4432,
      "another": 4433,
      "ws": 4434,
      "_session": 4435,
      "imal": 4436,
      "fd": 4437,
      "Imple": 4438,
      "geo": 4439,
      "tered": 4440,
      "All": 4441,
      "reason": 4442,
      "remove_": 4443,
      "specify": 4444,
      "pose": 4445,
      "_table": 4446,
      "bash": 4447,
      "18": 4448,
      "nt": 4449,
      "LOGGER": 4450,
      "DEFAULT_": 4451,
      "history": 4452,
      "Can": 4453,
      "white": 4454,
      "jobs": 4455,
      "epoch": 4456,
      "base_": 4457,
      "implement": 4458,
      "Mul": 4459,
      "feed": 4460,
      "numbers": 4461,
      "Win": 4462,
      "installed": 4463,
      "modified": 4464,
      "VER": 4465,
      "()):": 4466,
      "initial": 4467,
      "seed": 4468,
      "layers": 4469,
      "services": 4470,
      "serialize": 4471,
      "missions": 4472,
      "vation": 4473,
      "memb": 4474,
      "neg": 4475,
      "compo": 4476,
      "api_": 4477,
      "Tensor": 4478,
      "_set": 4479,
      "tom": 4480,
      "repository": 4481,
      "BU": 4482,
      "per_": 4483,
      "via": 4484,
      "normalize": 4485,
      "\"))": 4486,
      "normal": 4487,
      "remain": 4488,
      "test_": 4489,
      "failure": 4490,
      "necess": 4491,
      "{})": 4492,
      "esca": 4493,
      "embed": 4494,
      "iso": 4495,
      "warnings": 4496,
      "admin": 4497,
      "count_": 4498,
      "internal": 4499,
      "cla": 4500,
      "perform": 4501,
      "lack": 4502,
      "19": 4503,
      "Service": 4504,
      "generated": 4505,
      "Multi": 4506,
      "key_": 4507,
      "TYPE": 4508,
      "IL": 4509,
      "rat": 4510,
      "equal": 4511,
      "according": 4512,
      "jango": 4513,
      "ced": 4514,
      "model_": 4515,
      "tuples": 4516,
      "ant_": 4517,
      "override": 4518,
      "itude": 4519,
      "ATH": 4520,
      "QU": 4521,
      "Temp": 4522,
      "TS": 4523,
      "}.": 4524,
      "audi": 4525,
      "provider": 4526,
      "extract": 4527,
      "ng": 4528,
      "card": 4529,
      "sole": 4530,
      "home": 4531,
      "vs": 4532,
      "credentials": 4533,
      "spe": 4534,
      "checks": 4535,
      "ometry": 4536,
      "pipeline": 4537,
      "Vi": 4538,
      "none": 4539,
      "days": 4540,
      "controll": 4541,
      "validate_": 4542,
      "undle": 4543,
      "When": 4544,
      "verage": 4545,
      "----------------": 4546,
      "</": 4547,
      "layout": 4548,
      "Ho": 4549,
      "members": 4550,
      "alt": 4551,
      "loss": 4552,
      "digest": 4553,
      "sleep": 4554,
      "CI": 4555,
      "Helper": 4556,
      "('%": 4557,
      "cing": 4558,
      "currently": 4559,
      "K_": 4560,
      "scheme": 4561,
      "chil": 4562,
      "versions": 4563,
      "Wor": 4564,
      "pylint": 4565,
      "Oper": 4566,
      "cb": 4567,
      "verify": 4568,
      "calls": 4569,
      "ually": 4570,
      "would": 4571,
      "dimensions": 4572,
      "ek": 4573,
      "post_": 4574,
      "appli": 4575,
      "Server": 4576,
      "SQL": 4577,
      "split_": 4578,
      "ERR": 4579,
      "Stream": 4580,
      "resolve": 4581,
      "cular": 4582,
      "permission": 4583,
      "]),": 4584,
      "ifier": 4585,
      "compati": 4586,
      "means": 4587,
      "()))": 4588,
      "echo": 4589,
      "measure": 4590,
      "program": 4591,
      "cached": 4592,
      "Result": 4593,
      "(\"%": 4594,
      "content_type": 4595,
      "director": 4596,
      "bins": 4597,
      "und_": 4598,
      "=%": 4599,
      "vol": 4600,
      "convert_": 4601,
      "mas": 4602,
      "screen": 4603,
      "[:-": 4604,
      "Import": 4605,
      "file_name": 4606,
      "init": 4607,
      "HTML": 4608,
      "codes": 4609,
      "fast": 4610,
      "necessary": 4611,
      "'--": 4612,
      "Method": 4613,
      "Other": 4614,
      "add_argument": 4615,
      "\"),": 4616,
      "ainst": 4617,
      "starting": 4618,
      "eno": 4619,
      "reset": 4620,
      "Store": 4621,
      "/%": 4622,
      "(-": 4623,
      "e_": 4624,
      "owner": 4625,
      "idden": 4626,
      "registered": 4627,
      "adap": 4628,
      "SH": 4629,
      "saved": 4630,
      "alization": 4631,
      "she": 4632,
      "neigh": 4633,
      "Gener": 4634,
      "From": 4635,
      "minion": 4636,
      "descri": 4637,
      "against": 4638,
      "FO": 4639,
      "registry": 4640,
      "tables": 4641,
      "CP": 4642,
      "(%": 4643,
      "point_": 4644,
      "pt": 4645,
      "fasta": 4646,
      "received": 4647,
      "popul": 4648,
      "child_": 4649,
      "actual": 4650,
      "Down": 4651,
      "'*'": 4652,
      "etc": 4653,
      "Converts": 4654,
      "sort_": 4655,
      "workflow": 4656,
      "uted": 4657,
      "unpack": 4658,
      "import_": 4659,
      "You": 4660,
      "UP": 4661,
      "desi": 4662,
      "primary": 4663,
      "field_name": 4664,
      "_pre": 4665,
      "duplic": 4666,
      "refresh": 4667,
      "tten": 4668,
      "rag": 4669,
      "aggreg": 4670,
      "Defaults": 4671,
      "So": 4672,
      "rout": 4673,
      "analysis": 4674,
      "inser": 4675,
      "sequences": 4676,
      "rank": 4677,
      "method_": 4678,
      "validator": 4679,
      "()[": 4680,
      "formed": 4681,
      "ctions": 4682,
      "'}": 4683,
      "(['": 4684,
      "finally": 4685,
      "false": 4686,
      "ip_": 4687,
      "scen": 4688,
      "faces": 4689,
      "Status": 4690,
      "VAL": 4691,
      "encoded": 4692,
      "delete_": 4693,
      "sensor": 4694,
      "figure": 4695,
      "reply": 4696,
      "estim": 4697,
      "tificate": 4698,
      "search_": 4699,
      "URI": 4700,
      "14": 4701,
      "source_": 4702,
      "{},": 4703,
      "catalog": 4704,
      "Window": 4705,
      "statement": 4706,
      "Uni": 4707,
      "categor": 4708,
      "always": 4709,
      "_ref": 4710,
      "wal": 4711,
      "deleted": 4712,
      "security": 4713,
      "wra": 4714,
      "prox": 4715,
      "_number": 4716,
      "gg": 4717,
      "chunks": 4718,
      "Version": 4719,
      "area": 4720,
      "written": 4721,
      "cord_": 4722,
      "deplo": 4723,
      "grad": 4724,
      "PC": 4725,
      "paren": 4726,
      "_func": 4727,
      "Record": 4728,
      "best": 4729,
      "push": 4730,
      "dd": 4731,
      "runtime": 4732,
      "nam": 4733,
      "do_": 4734,
      "draw": 4735,
      "Job": 4736,
      "qual": 4737,
      "elem": 4738,
      "expand": 4739,
      "round": 4740,
      "_fn": 4741,
      "iteritems": 4742,
      "thub": 4743,
      "Over": 4744,
      "mag": 4745,
      "execution": 4746,
      "\"/": 4747,
      "concat": 4748,
      "retrieve": 4749,
      "ones": 4750,
      "bucke": 4751,
      "plied": 4752,
      "unknown": 4753,
      ".*": 4754,
      "Block": 4755,
      "stage": 4756,
      "valid_": 4757,
      "were": 4758,
      "Save": 4759,
      "Change": 4760,
      "itor": 4761,
      "quote": 4762,
      "dur": 4763,
      "cc": 4764,
      "additional": 4765,
      "cut": 4766,
      "ged": 4767,
      "Size": 4768,
      "Line": 4769,
      "linear": 4770,
      "MI": 4771,
      "_a": 4772,
      "Look": 4773,
      "__sal": 4774,
      "state_": 4775,
      "github": 4776,
      "_group": 4777,
      "fl": 4778,
      "abo": 4779,
      "google": 4780,
      "editor": 4781,
      "ification": 4782,
      "Whe": 4783,
      "priate": 4784,
      "13": 4785,
      "handlers": 4786,
      "my_": 4787,
      "}'": 4788,
      "sock": 4789,
      "ient": 4790,
      "user_id": 4791,
      "__salt__": 4792,
      "segments": 4793,
      "modif": 4794,
      "ilar": 4795,
      "(\"\\": 4796,
      "osid": 4797,
      "ry_": 4798,
      "GP": 4799,
      "ssh": 4800,
      "init_": 4801,
      "appropriate": 4802,
      "artifa": 4803,
      "asci": 4804,
      "HE": 4805,
      "sport": 4806,
      "ATI": 4807,
      "plugins": 4808,
      "out_file": 4809,
      "_x": 4810,
      "Colle": 4811,
      "delim": 4812,
      "bs": 4813,
      "CE": 4814,
      "lug": 4815,
      "once": 4816,
      "Met": 4817,
      "Token": 4818,
      "not_": 4819,
      "_is_": 4820,
      "Vari": 4821,
      "_g": 4822,
      "ped_": 4823,
      "_callback": 4824,
      "formatted": 4825,
      "ard_": 4826,
      "final": 4827,
      "too": 4828,
      "binding": 4829,
      "band": 4830,
      "scri": 4831,
      "sync": 4832,
      "Fin": 4833,
      "L_": 4834,
      "Fe": 4835,
      "freq": 4836,
      "({'": 4837,
      "licit": 4838,
      "tk": 4839,
      "Tree": 4840,
      "_sub": 4841,
      "drop": 4842,
      "fam": 4843,
      "promp": 4844,
      "progress": 4845,
      "Extract": 4846,
      "-%": 4847,
      "frequency": 4848,
      "switch": 4849,
      "variant": 4850,
      "_json": 4851,
      "_record": 4852,
      "_for_": 4853,
      "Be": 4854,
      "Source": 4855,
      "IOError": 4856,
      "'](": 4857,
      "pret": 4858,
      "_context": 4859,
      "cted_": 4860,
      "vec": 4861,
      "Fetch": 4862,
      "repr": 4863,
      "\"{}": 4864,
      "context_": 4865,
      "proc": 4866,
      "validation": 4867,
      "Output": 4868,
      "Arguments": 4869,
      "Take": 4870,
      "threads": 4871,
      "http_": 4872,
      "implemented": 4873,
      "contra": 4874,
      "Whether": 4875,
      "geometry": 4876,
      "loader": 4877,
      "KEY": 4878,
      "CT": 4879,
      "least": 4880,
      "Mar": 4881,
      "manage": 4882,
      "watch": 4883,
      "iv": 4884,
      "choice": 4885,
      "M_": 4886,
      "rm": 4887,
      "phase": 4888,
      "show_": 4889,
      "identity": 4890,
      "_spec": 4891,
      "Wrap": 4892,
      "entifier": 4893,
      "compar": 4894,
      "sci": 4895,
      "RI": 4896,
      "product": 4897,
      "'')": 4898,
      "devices": 4899,
      "prote": 4900,
      "Print": 4901,
      "NS": 4902,
      "Stop": 4903,
      "System": 4904,
      "Code": 4905,
      "siz": 4906,
      "analy": 4907,
      "video": 4908,
      "those": 4909,
      "LE_": 4910,
      "Entry": 4911,
      "########": 4912,
      "Qt": 4913,
      "static": 4914,
      "deep": 4915,
      "_set_": 4916,
      "33": 4917,
      "_log": 4918,
      "Manager": 4919,
      "argv": 4920,
      "signed": 4921,
      "logs": 4922,
      "pot": 4923,
      "terms": 4924,
      "supplied": 4925,
      "marker": 4926,
      "_get": 4927,
      "ings": 4928,
      "repe": 4929,
      "1000": 4930,
      "-=": 4931,
      "Could": 4932,
      "needs": 4933,
      "Validate": 4934,
      "'',": 4935,
      "WS": 4936,
      "collections": 4937,
      "hosts": 4938,
      "ength": 4939,
      "subclass": 4940,
      "rup": 4941,
      "rg": 4942,
      "effici": 4943,
      "lag": 4944,
      "wait_": 4945,
      "vectors": 4946,
      "_filename": 4947,
      "_frame": 4948,
      "_text": 4949,
      "order_": 4950,
      "Sele": 4951,
      "rot": 4952,
      "assess": 4953,
      "lead": 4954,
      "escape": 4955,
      "blob": 4956,
      "sl": 4957,
      "builder": 4958,
      "IDs": 4959,
      "Wid": 4960,
      "ts_": 4961,
      "menu": 4962,
      "Tag": 4963,
      "automat": 4964,
      "bility": 4965,
      "View": 4966,
      "Task": 4967,
      "_options": 4968,
      "reshape": 4969,
      "DAT": 4970,
      "reduce": 4971,
      "Implemented": 4972,
      "Link": 4973,
      "={": 4974,
      "font": 4975,
      "nested": 4976,
      "compres": 4977,
      "ective": 4978,
      "ERROR": 4979,
      "orary": 4980,
      "ense": 4981,
      "name_": 4982,
      "actor": 4983,
      "lex": 4984,
      "appen": 4985,
      "Ordered": 4986,
      "cookie": 4987,
      "pres": 4988,
      "()]": 4989,
      "Try": 4990,
      "statist": 4991,
      "Param": 4992,
      "average": 4993,
      "trigger": 4994,
      "gue": 4995,
      "SION": 4996,
      "rl": 4997,
      "Lay": 4998,
      "include_": 4999,
      "well": 5000,
      "virtual": 5001,
      "batch_size": 5002,
      "256": 5003,
      "sender": 5004,
      "word_": 5005,
      "positions": 5006,
      "no_": 5007,
      "Sequ": 5008,
      "pages": 5009,
      "ness": 5010,
      "plot_": 5011,
      "VM": 5012,
      "ops": 5013,
      "subscrip": 5014,
      "gon": 5015,
      "('.": 5016,
      "poll": 5017,
      "_response": 5018,
      "built": 5019,
      "Cop": 5020,
      "ATION": 5021,
      "_S": 5022,
      "_add_": 5023,
      "pan": 5024,
      "priority": 5025,
      "directories": 5026,
      "keywords": 5027,
      "related": 5028,
      "}\\": 5029,
      "simul": 5030,
      "bel": 5031,
      "cd": 5032,
      "permissions": 5033,
      "spect": 5034,
      "Max": 5035,
      "padding": 5036,
      "rs": 5037,
      "sections": 5038,
      "separator": 5039,
      "dou": 5040,
      "_kwargs": 5041,
      ",)": 5042,
      "FOR": 5043,
      "vocab": 5044,
      "deploy": 5045,
      "constants": 5046,
      "dst": 5047,
      "entry_": 5048,
      "generate_": 5049,
      "_check_": 5050,
      "izer": 5051,
      "theta": 5052,
      "radius": 5053,
      "problem": 5054,
      "tic": 5055,
      "ep_": 5056,
      "dataframe": 5057,
      "identifi": 5058,
      "'\"": 5059,
      "deg": 5060,
      "indexes": 5061,
      "Syn": 5062,
      "bra": 5063,
      "beta": 5064,
      "DS": 5065,
      "header_": 5066,
      "delay": 5067,
      "flatten": 5068,
      "}\"": 5069,
      "experi": 5070,
      "partial": 5071,
      "console": 5072,
      "neighb": 5073,
      "Sign": 5074,
      "Point": 5075,
      "inspect": 5076,
      "_check": 5077,
      "percent": 5078,
      "return_": 5079,
      "cells": 5080,
      "cwd": 5081,
      "quired": 5082,
      "Bin": 5083,
      "bad": 5084,
      "ture": 5085,
      "power": 5086,
      "adjust": 5087,
      "extract_": 5088,
      "firm": 5089,
      "closed": 5090,
      "Otherwise": 5091,
      "''.": 5092,
      "pg": 5093,
      "free": 5094,
      "_model": 5095,
      "patterns": 5096,
      "_start": 5097,
      "paralle": 5098,
      "flush": 5099,
      "RA": 5100,
      "ields": 5101,
      "traceback": 5102,
      "setattr": 5103,
      "plotlib": 5104,
      "Test": 5105,
      "lean": 5106,
      "connections": 5107,
      "ather": 5108,
      "transition": 5109,
      "Doc": 5110,
      "requires": 5111,
      "Head": 5112,
      "sian": 5113,
      "OSError": 5114,
      "Option": 5115,
      "boot": 5116,
      "Network": 5117,
      "ection": 5118,
      "along": 5119,
      "chron": 5120,
      "predi": 5121,
      "annotation": 5122,
      "2_": 5123,
      "outfile": 5124,
      "above": 5125,
      "ndim": 5126,
      "rb": 5127,
      "oft": 5128,
      "expect": 5129,
      "updates": 5130,
      "cach": 5131,
      "Ne": 5132,
      "quanti": 5133,
      "sigma": 5134,
      "parsed_": 5135,
      "selector": 5136,
      "double": 5137,
      "authentication": 5138,
      "raised": 5139,
      "gers": 5140,
      "timezone": 5141,
      "controller": 5142,
      "_len": 5143,
      "calculate": 5144,
      "precision": 5145,
      "PRO": 5146,
      "War": 5147,
      "80": 5148,
      "directly": 5149,
      "Tuple": 5150,
      "share": 5151,
      "pur": 5152,
      "Construct": 5153,
      "global_": 5154,
      "negative": 5155,
      "Cannot": 5156,
      "ide": 5157,
      "determine": 5158,
      "node_": 5159,
      "temper": 5160,
      "executable": 5161,
      "bundle": 5162,
      "incre": 5163,
      "coder": 5164,
      "Unknown": 5165,
      "configured": 5166,
      "handle_": 5167,
      "Parameter": 5168,
      "sampl": 5169,
      "around": 5170,
      "plain": 5171,
      "transport": 5172,
      "overwrite": 5173,
      "('-": 5174,
      "format_": 5175,
      "inside": 5176,
      "prediction": 5177,
      "Action": 5178,
      "Api": 5179,
      "dices": 5180,
      "Register": 5181,
      "Determine": 5182,
      "media": 5183,
      "week": 5184,
      "_sum": 5185,
      "cum": 5186,
      "configs": 5187,
      "equi": 5188,
      "training": 5189,
      "_RE": 5190,
      "queryset": 5191,
      "ET": 5192,
      "ancel": 5193,
      "quire": 5194,
      "Perform": 5195,
      "flux": 5196,
      "ascii": 5197,
      "gradi": 5198,
      "isfile": 5199,
      "start_time": 5200,
      "17": 5201,
      "docker": 5202,
      "noti": 5203,
      "typ": 5204,
      "calling": 5205,
      "\"-": 5206,
      "MS": 5207,
      "_keys": 5208,
      "bal": 5209,
      "filenames": 5210,
      "did": 5211,
      "Address": 5212,
      "comments": 5213,
      "dynam": 5214,
      "consum": 5215,
      "ifies": 5216,
      "Descrip": 5217,
      "button": 5218,
      "Column": 5219,
      "slug": 5220,
      "s_list": 5221,
      "Li": 5222,
      "ED": 5223,
      "logy": 5224,
      "abspath": 5225,
      "similar": 5226,
      "inf": 5227,
      "seen": 5228,
      "lip": 5229,
      "addresses": 5230,
      "entities": 5231,
      "x1": 5232,
      "_meta": 5233,
      "record_": 5234,
      "exact": 5235,
      "db_": 5236,
      "config_": 5237,
      "big": 5238,
      "}{": 5239,
      "consist": 5240,
      "operations": 5241,
      "Initialize": 5242,
      "desired": 5243,
      "avoid": 5244,
      "G_": 5245,
      "_parse_": 5246,
      "cores": 5247,
      "Dataset": 5248,
      "store_": 5249,
      "extensions": 5250,
      "matplotlib": 5251,
      "sqrt": 5252,
      "[])": 5253,
      "gap": 5254,
      "returning": 5255,
      "Work": 5256,
      "team": 5257,
      "md5": 5258,
      "rele": 5259,
      "ated_": 5260,
      "notification": 5261,
      "fall": 5262,
      "ices": 5263,
      "cour": 5264,
      "ght_": 5265,
      "request_": 5266,
      "levels": 5267,
      "OK": 5268,
      "Ca": 5269,
      "invo": 5270,
      "noise": 5271,
      "}/": 5272,
      "End": 5273,
      "_clo": 5274,
      "price": 5275,
      "dispatch": 5276,
      "trib": 5277,
      "cid": 5278,
      "logic": 5279,
      "particular": 5280,
      "Sequence": 5281,
      "maj": 5282,
      "Proper": 5283,
      "yet": 5284,
      "frag": 5285,
      "vertices": 5286,
      "visible": 5287,
      "ename": 5288,
      "02": 5289,
      "manif": 5290,
      "hidden": 5291,
      "diag": 5292,
      "ratio": 5293,
      "implementation": 5294,
      "_array": 5295,
      "know": 5296,
      "_prefix": 5297,
      "Removes": 5298,
      "cos": 5299,
      "rdf": 5300,
      "perio": 5301,
      "mes": 5302,
      "ify_": 5303,
      "peak": 5304,
      "cmd_": 5305,
      "Wa": 5306,
      "pm": 5307,
      "exclu": 5308,
      "Operation": 5309,
      "OrderedDict": 5310,
      "_filter": 5311,
      "pointer": 5312,
      "locations": 5313,
      "dn": 5314,
      "frames": 5315,
      "cn": 5316,
      "unch": 5317,
      "schedule": 5318,
      "effect": 5319,
      "Pa": 5320,
      "Count": 5321,
      "_label": 5322,
      "mime": 5323,
      "router": 5324,
      "rowser": 5325,
      "notebook": 5326,
      "sively": 5327,
      "zo": 5328,
      "vertex": 5329,
      "]+": 5330,
      "jav": 5331,
      "_cmd": 5332,
      "Unable": 5333,
      "setdefault": 5334,
      "pdf": 5335,
      "got": 5336,
      "regular": 5337,
      "New": 5338,
      "Decor": 5339,
      "PATH": 5340,
      "definitions": 5341,
      "ssl": 5342,
      "audio": 5343,
      "during": 5344,
      "_fields": 5345,
      "Norm": 5346,
      "ql": 5347,
      "keyid": 5348,
      "reads": 5349,
      "ration": 5350,
      "STAT": 5351,
      "resid": 5352,
      ":-": 5353,
      "recursive": 5354,
      "Ensure": 5355,
      "255": 5356,
      "temperature": 5357,
      "src_": 5358,
      "alg": 5359,
      "group_": 5360,
      "light": 5361,
      "variance": 5362,
      "_from": 5363,
      "asset": 5364,
      "block_": 5365,
      "timedelta": 5366,
      "wrapped": 5367,
      "END": 5368,
      "Tran": 5369,
      "_in_": 5370,
      "access_token": 5371,
      "A_": 5372,
      "organ": 5373,
      "icro": 5374,
      "complex": 5375,
      "instr": 5376,
      "BO": 5377,
      "compare": 5378,
      "reach": 5379,
      "coordinate": 5380,
      "certificate": 5381,
      "at_": 5382,
      "Device": 5383,
      "prepare": 5384,
      "Parses": 5385,
      "Pass": 5386,
      "uff": 5387,
      "Defin": 5388,
      ")])": 5389,
      "reading": 5390,
      "converted": 5391,
      "translate": 5392,
      "certain": 5393,
      "data_type": 5394,
      "SU": 5395,
      "applied": 5396,
      "astype": 5397,
      "sizes": 5398,
      "fh": 5399,
      "FIX": 5400,
      "s3": 5401,
      "ga": 5402,
      "ory_": 5403,
      "mething": 5404,
      "Generates": 5405,
      "abel": 5406,
      "takes": 5407,
      "Warning": 5408,
      "fw": 5409,
      "ia": 5410,
      "umb": 5411,
      "Of": 5412,
      "_un": 5413,
      "Seri": 5414,
      "cross": 5415,
      "ner_": 5416,
      "string_types": 5417,
      "conditions": 5418,
      "LA": 5419,
      "000": 5420,
      "emit": 5421,
      "_paths": 5422,
      "basic": 5423,
      "included": 5424,
      "family": 5425,
      "creating": 5426,
      "mk": 5427,
      "constraints": 5428,
      "prompt": 5429,
      "squ": 5430,
      "subscri": 5431,
      "background": 5432,
      "clone": 5433,
      "snapshot": 5434,
      "','": 5435,
      "specification": 5436,
      "Is": 5437,
      "\\'": 5438,
      "\"]:": 5439,
      "dae": 5440,
      "overlap": 5441,
      "Buil": 5442,
      "[[": 5443,
      "country": 5444,
      "_reg": 5445,
      "HO": 5446,
      "including": 5447,
      "Cloud": 5448,
      "trieves": 5449,
      "1_": 5450,
      "22": 5451,
      "game": 5452,
      "Apply": 5453,
      "Match": 5454,
      "subset": 5455,
      "interpo": 5456,
      "parents": 5457,
      "mass": 5458,
      "enc": 5459,
      "dx": 5460,
      "fc": 5461,
      "_base": 5462,
      "Union": 5463,
      "individ": 5464,
      ":])": 5465,
      "pickle": 5466,
      "lineno": 5467,
      "Pri": 5468,
      "parsing": 5469,
      "mediate": 5470,
      "Show": 5471,
      "_object": 5472,
      "mount": 5473,
      "erarch": 5474,
      "\"\",": 5475,
      "special": 5476,
      "dle": 5477,
      "bus": 5478,
      "Execute": 5479,
      "surface": 5480,
      "automatically": 5481,
      "}:": 5482,
      "question": 5483,
      "walk": 5484,
      "ki": 5485,
      "(',": 5486,
      "qs": 5487,
      "docstring": 5488,
      "Updates": 5489,
      "asser": 5490,
      "latest": 5491,
      "processed": 5492,
      "determin": 5493,
      "shift": 5494,
      "sed_": 5495,
      "js": 5496,
      "cope": 5497,
      "configure": 5498,
      "bottom": 5499,
      "positive": 5500,
      "Access": 5501,
      "listen": 5502,
      "roles": 5503,
      "\"].": 5504,
      "Sk": 5505,
      "ignored": 5506,
      "GI": 5507,
      "_indices": 5508,
      "started": 5509,
      "element_": 5510,
      "templates": 5511,
      "numeric": 5512,
      "inj": 5513,
      "FL": 5514,
      "backup": 5515,
      "lst": 5516,
      "cert": 5517,
      "register_": 5518,
      "ato": 5519,
      "Page": 5520,
      "authorization": 5521,
      "mac": 5522,
      "_i": 5523,
      "34": 5524,
      "Pol": 5525,
      "might": 5526,
      "rer": 5527,
      "ationError": 5528,
      "There": 5529,
      "ilities": 5530,
      "attempt": 5531,
      "\"--": 5532,
      "Form": 5533,
      "xx": 5534,
      "pretty": 5535,
      "array_": 5536,
      "limits": 5537,
      "locale": 5538,
      "chars": 5539,
      "annotations": 5540,
      ")}": 5541,
      "(?": 5542,
      "Mer": 5543,
      "equival": 5544,
      "Sup": 5545,
      "django": 5546,
      "ket": 5547,
      "provide": 5548,
      "_logger": 5549,
      "Also": 5550,
      "difference": 5551,
      "energy": 5552,
      "Que": 5553,
      "vas": 5554,
      "export": 5555,
      "exc_info": 5556,
      "Ab": 5557,
      "nl": 5558,
      "wave": 5559,
      "_width": 5560,
      "Su": 5561,
      "apping": 5562,
      "experiment": 5563,
      "oth": 5564,
      "amma": 5565,
      "shor": 5566,
      "Reads": 5567,
      "PE_": 5568,
      "iver": 5569,
      "servers": 5570,
      "Go": 5571,
      "isdir": 5572,
      "Copy": 5573,
      "extra_": 5574,
      "Variable": 5575,
      "Plot": 5576,
      "trun": 5577,
      "ender": 5578,
      "-----": 5579,
      "SET": 5580,
      "sentence": 5581,
      "STR": 5582,
      "below": 5583,
      "\").": 5584,
      "remote_": 5585,
      "nb": 5586,
      "external": 5587,
      "choices": 5588,
      "_mode": 5589,
      "Windows": 5590,
      "fon": 5591,
      "Ref": 5592,
      "constant": 5593,
      "strict": 5594,
      "ument_": 5595,
      "_regi": 5596,
      "adj": 5597,
      "final_": 5598,
      "Red": 5599,
      "ough": 5600,
      "ttp": 5601,
      "Contain": 5602,
      "documentation": 5603,
      "expected_": 5604,
      "adapter": 5605,
      ":\\": 5606,
      "seek": 5607,
      "nor": 5608,
      "dates": 5609,
      "www": 5610,
      "kl": 5611,
      "successful": 5612,
      "Download": 5613,
      "Schema": 5614,
      "prev": 5615,
      "Http": 5616,
      "dit": 5617,
      "s__": 5618,
      "_batch": 5619,
      "checksum": 5620,
      "image_": 5621,
      "longit": 5622,
      "play_": 5623,
      "iteration": 5624,
      "initial_": 5625,
      "SD": 5626,
      "ous_": 5627,
      "service_": 5628,
      "rep": 5629,
      "Mark": 5630,
      "peer": 5631,
      "IndexError": 5632,
      "bam": 5633,
      "2D": 5634,
      "aw": 5635,
      "ual_": 5636,
      "dia": 5637,
      "client_id": 5638,
      "save_": 5639,
      "vcf": 5640,
      "va": 5641,
      "formatter": 5642,
      ".\",": 5643,
      "ctive": 5644,
      "ogram": 5645,
      "ordered": 5646,
      "original_": 5647,
      "magi": 5648,
      "Please": 5649,
      "number_": 5650,
      "cycle": 5651,
      "black": 5652,
      "Dire": 5653,
      "fg": 5654,
      "dicts": 5655,
      "cated": 5656,
      "statements": 5657,
      "Thread": 5658,
      "small": 5659,
      "temporary": 5660,
      "Enable": 5661,
      "urls": 5662,
      ">`": 5663,
      "Vect": 5664,
      "cpu": 5665,
      "secre": 5666,
      "curve": 5667,
      "Lev": 5668,
      "matched": 5669,
      "Color": 5670,
      "processes": 5671,
      "Mon": 5672,
      "mm": 5673,
      "']))": 5674,
      "dl": 5675,
      "scores": 5676,
      "sat": 5677,
      "lit": 5678,
      "curren": 5679,
      "Box": 5680,
      "90": 5681,
      "something": 5682,
      "constructor": 5683,
      "Spli": 5684,
      "}}": 5685,
      "Min": 5686,
      "sparse": 5687,
      "F_": 5688,
      "mx": 5689,
      "lags": 5690,
      "submit": 5691,
      "compatible": 5692,
      "subscription": 5693,
      "bank": 5694,
      "still": 5695,
      "Reference": 5696,
      "vr": 5697,
      "module_name": 5698,
      "Called": 5699,
      "TYPE_": 5700,
      "DEBU": 5701,
      "Level": 5702,
      "pending": 5703,
      "__dict_": 5704,
      "_message": 5705,
      "revision": 5706,
      "Mis": 5707,
      "fixed": 5708,
      "nn": 5709,
      "references": 5710,
      "lyph": 5711,
      "Dist": 5712,
      "Fir": 5713,
      "imat": 5714,
      "mig": 5715,
      "rol": 5716,
      "whose": 5717,
      "SA": 5718,
      "conta": 5719,
      "basestring": 5720,
      "Logger": 5721,
      "havi": 5722,
      "inner": 5723,
      "Retrieves": 5724,
      "serialized": 5725,
      "parallel": 5726,
      "objective": 5727,
      "__dict__": 5728,
      "<<": 5729,
      "css": 5730,
      "ranges": 5731,
      "twi": 5732,
      "later": 5733,
      "ited": 5734,
      "Setting": 5735,
      "acy": 5736,
      "Diction": 5737,
      "accept": 5738,
      "v4": 5739,
      "vlan": 5740,
      "latitude": 5741,
      "hum": 5742,
      "nu": 5743,
      "_cli": 5744,
      "dependency": 5745,
      "props": 5746,
      "_or_": 5747,
      "king": 5748,
      "config_file": 5749,
      "quad": 5750,
      "conversion": 5751,
      "enter": 5752,
      "uint": 5753,
      "\"][\"": 5754,
      "chat": 5755,
      "stit": 5756,
      "LOC": 5757,
      "gz": 5758,
      "explicit": 5759,
      "GO": 5760,
      "ropy": 5761,
      "mix": 5762,
      "PY": 5763,
      "sw": 5764,
      ")).": 5765,
      "forward": 5766,
      "Cell": 5767,
      "redis": 5768,
      "manifest": 5769,
      "'<": 5770,
      "One": 5771,
      "conv": 5772,
      "Current": 5773,
      "statistics": 5774,
      "daemon": 5775,
      "assigned": 5776,
      "UID": 5777,
      "XX": 5778,
      "les": 5779,
      "digi": 5780,
      "velo": 5781,
      "Timeout": 5782,
      "sheet": 5783,
      "categories": 5784,
      "1e": 5785,
      "pie": 5786,
      "altern": 5787,
      "Row": 5788,
      "cases": 5789,
      "row_": 5790,
      "dataset_": 5791,
      "Template": 5792,
      "Exp": 5793,
      "36": 5794,
      "relationship": 5795,
      "course": 5796,
      "delimiter": 5797,
      "uti": 5798,
      "fire": 5799,
      "Obj": 5800,
      "ignore_": 5801,
      "wraps": 5802,
      "caller": 5803,
      "amp": 5804,
      "Each": 5805,
      "blue": 5806,
      "allow_": 5807,
      "LIN": 5808,
      "rh": 5809,
      "normalized": 5810,
      "cti": 5811,
      "opts__": 5812,
      "Tar": 5813,
      "working": 5814,
      "pull": 5815,
      "coeffici": 5816,
      "alizer": 5817,
      "monitor": 5818,
      "processor": 5819,
      "hard": 5820,
      "q_": 5821,
      "__opts__": 5822,
      "define": 5823,
      "cture": 5824,
      "[],": 5825,
      "icon": 5826,
      "ported": 5827,
      "Internal": 5828,
      "ential": 5829,
      "encoder": 5830,
      "Web": 5831,
      "Length": 5832,
      "net_": 5833,
      "rende": 5834,
      "url_": 5835,
      "resolved": 5836,
      "maps": 5837,
      "Does": 5838,
      "Transform": 5839,
      "dictionaries": 5840,
      "_create_": 5841,
      "]])": 5842,
      "text_type": 5843,
      "Decorator": 5844,
      "datasets": 5845,
      "argin": 5846,
      "symbols": 5847,
      "With": 5848,
      "ft_": 5849,
      "oriz": 5850,
      "polygon": 5851,
      "ied": 5852,
      "topo": 5853,
      "')[": 5854,
      "sub_": 5855,
      "RPC": 5856,
      "room": 5857,
      "allows": 5858,
      "Ro": 5859,
      "longitude": 5860,
      "formats": 5861,
      "cio": 5862,
      "tre": 5863,
      "construct": 5864,
      "ert": 5865,
      "stdin": 5866,
      "Dictionary": 5867,
      "_y": 5868,
      "C_": 5869,
      "Notes": 5870,
      "_interval": 5871,
      "utc": 5872,
      "Inte": 5873,
      "sites": 5874,
      "best_": 5875,
      "_function": 5876,
      "timer": 5877,
      "os_": 5878,
      "stmt": 5879,
      "happen": 5880,
      "serve": 5881,
      "genome": 5882,
      "\"'": 5883,
      "hal": 5884,
      "DEBUG": 5885,
      "ked_": 5886,
      "candidate": 5887,
      "az": 5888,
      "-+-+-+-+-+-+-+-+": 5889,
      "pen": 5890,
      "itself": 5891,
      "creates": 5892,
      "_schema": 5893,
      "MAT": 5894,
      "abilities": 5895,
      "scipy": 5896,
      "browser": 5897,
      "Module": 5898,
      "consu": 5899,
      "bind": 5900,
      "FILE": 5901,
      "MM": 5902,
      "tical": 5903,
      "agen": 5904,
      "serial": 5905,
      "nothing": 5906,
      "completion": 5907,
      "finished": 5908,
      "Document": 5909,
      "mod_": 5910,
      "compli": 5911,
      "requirements": 5912,
      "Reg": 5913,
      "Unicode": 5914,
      "Chan": 5915,
      "remaining": 5916,
      "_CON": 5917,
      "Wait": 5918,
      "shared": 5919,
      "Pub": 5920,
      "atoms": 5921,
      "mble": 5922,
      "shut": 5923,
      "phi": 5924,
      "slo": 5925,
      "_num": 5926,
      "_address": 5927,
      "thumb": 5928,
      "Configuration": 5929,
      "pixels": 5930,
      "checked": 5931,
      "rever": 5932,
      "behavi": 5933,
      "Queue": 5934,
      "pend": 5935,
      "precated": 5936,
      "expan": 5937,
      "activity": 5938,
      "Exist": 5939,
      "json_": 5940,
      "First": 5941,
      "bg": 5942,
      "AND": 5943,
      "lite": 5944,
      "ui": 5945,
      "grees": 5946,
      "ferred": 5947,
      "direct_": 5948,
      "Attemp": 5949,
      "initialize": 5950,
      "Tri": 5951,
      "_end": 5952,
      "resolution": 5953,
      "']]": 5954,
      "shutil": 5955,
      "regions": 5956,
      "sters": 5957,
      ".'''": 5958,
      "Bad": 5959,
      "ring": 5960,
      "perm": 5961,
      "made": 5962,
      "runs": 5963,
      "MEN": 5964,
      "Us": 5965,
      "INFO": 5966,
      "Vector": 5967,
      "IG": 5968,
      "Mat": 5969,
      "Char": 5970,
      "uth": 5971,
      "translation": 5972,
      "GB": 5973,
      "div": 5974,
      "_view": 5975,
      "top_": 5976,
      "examples": 5977,
      "urllib": 5978,
      "fm": 5979,
      "zoom": 5980,
      "filtered": 5981,
      "bul": 5982,
      "ross": 5983,
      "unic": 5984,
      "clip": 5985,
      "_template": 5986,
      "colo": 5987,
      "genes": 5988,
      "placeh": 5989,
      "Dir": 5990,
      "conti": 5991,
      "Label": 5992,
      "toff": 5993,
      "ckets": 5994,
      "alignment": 5995,
      "SER": 5996,
      "pb": 5997,
      "SIG": 5998,
      "Channel": 5999,
      "bon": 6000,
      "zen": 6001,
      "reco": 6002,
      "atalog": 6003,
      "dialog": 6004,
      "rv": 6005,
      "instru": 6006,
      "integr": 6007,
      "ges": 6008,
      "='',": 6009,
      "layer_": 6010,
      "Proto": 6011,
      "inten": 6012,
      "86": 6013,
      "isn": 6014,
      "asse": 6015,
      "NotImplemented": 6016,
      "CF": 6017,
      "middle": 6018,
      "pear": 6019,
      "asyncio": 6020,
      "keep_": 6021,
      "moun": 6022,
      "cept": 6023,
      "atory": 6024,
      "auto_": 6025,
      "ImportError": 6026,
      "oauth": 6027,
      "TIME": 6028,
      "_field": 6029,
      "s_path": 6030,
      "23": 6031,
      "minutes": 6032,
      "eig": 6033,
      "acity": 6034,
      "select_": 6035,
      "Must": 6036,
      "criter": 6037,
      "deepcopy": 6038,
      "base64": 6039,
      ".)": 6040,
      "_item": 6041,
      "Layer": 6042,
      "ines": 6043,
      "union": 6044,
      "aliases": 6045,
      "DIR": 6046,
      "Cache": 6047,
      "smo": 6048,
      "pred": 6049,
      "liter": 6050,
      "Produ": 6051,
      "WOR": 6052,
      "sd": 6053,
      "atten": 6054,
      "cost": 6055,
      "Metadata": 6056,
      "Le": 6057,
      "Range": 6058,
      "crete": 6059,
      "WAR": 6060,
      "slot": 6061,
      "func_": 6062,
      "compil": 6063,
      "individual": 6064,
      "={'": 6065,
      "attrib": 6066,
      "v6": 6067,
      "alloc": 6068,
      "Location": 6069,
      "\"\")": 6070,
      "digits": 6071,
      "gamma": 6072,
      "=-": 6073,
      "writing": 6074,
      "works": 6075,
      "stro": 6076,
      "broad": 6077,
      "useful": 6078,
      "Post": 6079,
      "major": 6080,
      "coming": 6081,
      "Mem": 6082,
      "IT": 6083,
      "Now": 6084,
      "aves": 6085,
      "_B": 6086,
      "_error": 6087,
      "s_dict": 6088,
      "be_": 6089,
      "table_name": 6090,
      "FS": 6091,
      "soft": 6092,
      "expo": 6093,
      ".'.": 6094,
      "host_": 6095,
      "_hash": 6096,
      "native": 6097,
      "Collection": 6098,
      "lice": 6099,
      "applic": 6100,
      "outer": 6101,
      "href": 6102,
      "Takes": 6103,
      "Ag": 6104,
      "workers": 6105,
      "_range": 6106,
      "arange": 6107,
      "clusters": 6108,
      "wb": 6109,
      "boto": 6110,
      "etree": 6111,
      "offsets": 6112,
      "transl": 6113,
      "_update": 6114,
      "lan": 6115,
      "estimat": 6116,
      "Allow": 6117,
      "concaten": 6118,
      "iform": 6119,
      "2d": 6120,
      "onto": 6121,
      "ACK": 6122,
      "rotation": 6123,
      "loading": 6124,
      "serializer": 6125,
      "digit": 6126,
      "tests": 6127,
      "_out": 6128,
      "Stru": 6129,
      "Header": 6130,
      "__doc": 6131,
      "trail": 6132,
      "_on_": 6133,
      "Parti": 6134,
      "404": 6135,
      "Pack": 6136,
      "asc": 6137,
      "ural": 6138,
      "Anal": 6139,
      "proxy_": 6140,
      "live": 6141,
      "Wrapper": 6142,
      "`:": 6143,
      "_identifier": 6144,
      "checking": 6145,
      "ragma": 6146,
      "projection": 6147,
      "paces": 6148,
      "Used": 6149,
      "formul": 6150,
      "registr": 6151,
      "verify_": 6152,
      "_read_": 6153,
      "cond": 6154,
      "pin": 6155,
      "uler": 6156,
      "prev_": 6157,
      "base_url": 6158,
      "_build_": 6159,
      "obs": 6160,
      "Back": 6161,
      "queries": 6162,
      "equivalent": 6163,
      "_CO": 6164,
      "degrees": 6165,
      "Values": 6166,
      "_line": 6167,
      "tx_": 6168,
      "addition": 6169,
      "spaces": 6170,
      "Na": 6171,
      "unable": 6172,
      "entire": 6173,
      "(\\": 6174,
      "index_": 6175,
      "task_": 6176,
      "CA": 6177,
      "Decode": 6178,
      "__doc__": 6179,
      "PIP": 6180,
      "copi": 6181,
      "He": 6182,
      "script_": 6183,
      "cript": 6184,
      "embedding": 6185,
      "rstrip": 6186,
      "coding": 6187,
      "resulting": 6188,
      "errno": 6189,
      "SIZ": 6190,
      "HEAD": 6191,
      "Display": 6192,
      "gl": 6193,
      "_initi": 6194,
      "(:": 6195,
      "micro": 6196,
      "angles": 6197,
      "Split": 6198,
      "conven": 6199,
      "apply_": 6200,
      "green": 6201,
      "separated": 6202,
      "RF": 6203,
      "asset_": 6204,
      "ceed": 6205,
      "iter_": 6206,
      "again": 6207,
      "ks": 6208,
      "predicate": 6209,
      "VERSION": 6210,
      "dra": 6211,
      "pragma": 6212,
      "fails": 6213,
      "locals": 6214,
      "perc": 6215,
      "LU": 6216,
      "if_": 6217,
      "due": 6218,
      "job_id": 6219,
      "Ter": 6220,
      "_scope": 6221,
      "aff": 6222,
      "chrom": 6223,
      "recent": 6224,
      "orient": 6225,
      "large": 6226,
      "readable": 6227,
      "intersection": 6228,
      "texts": 6229,
      "density": 6230,
      "wel": 6231,
      "stm": 6232,
      "responses": 6233,
      "alth": 6234,
      "ric": 6235,
      ".\".": 6236,
      "lio": 6237,
      "blank": 6238,
      "export_": 6239,
      "human": 6240,
      "right_": 6241,
      "rr": 6242,
      "Connect": 6243,
      "actually": 6244,
      "documents": 6245,
      "api_key": 6246,
      "unit_": 6247,
      "illar": 6248,
      "value_": 6249,
      "confirm": 6250,
      "Sim": 6251,
      "x0": 6252,
      "Property": 6253,
      "appear": 6254,
      "'{}'": 6255,
      "Author": 6256,
      "san": 6257,
      "macro": 6258,
      "LD": 6259,
      "inplace": 6260,
      "INT": 6261,
      "Missing": 6262,
      "tach": 6263,
      "modify": 6264,
      "persist": 6265,
      "grams": 6266,
      "Params": 6267,
      "nx": 6268,
      "transi": 6269,
      "gradient": 6270,
      "completed": 6271,
      "Authenti": 6272,
      ")*": 6273,
      "_data_": 6274,
      "rong": 6275,
      "issues": 6276,
      "assessment_": 6277,
      "75": 6278,
      "resource_": 6279,
      "NOTE": 6280,
      "sorted_": 6281,
      "article": 6282,
      "degree": 6283,
      "tb": 6284,
      "fit_": 6285,
      "speed": 6286,
      "server_": 6287,
      "wards": 6288,
      "previous_": 6289,
      "ret_": 6290,
      "greater": 6291,
      "ME_": 6292,
      "Sta": 6293,
      "recip": 6294,
      "one_": 6295,
      "histogram": 6296,
      "hdr": 6297,
      "float32": 6298,
      "fu": 6299,
      "ling": 6300,
      "display_": 6301,
      "outine": 6302,
      "Lookup": 6303,
      "================": 6304,
      ".\\": 6305,
      "ingle": 6306,
      "prin": 6307,
      "alizes": 6308,
      "ALL": 6309,
      "force_": 6310,
      "merged": 6311,
      "represent": 6312,
      "Permission": 6313,
      ")\"": 6314,
      "lity": 6315,
      "versionadded": 6316,
      "map_": 6317,
      "ABLE": 6318,
      "dependent": 6319,
      "restri": 6320,
      "Rel": 6321,
      "apps": 6322,
      "edit": 6323,
      "indicating": 6324,
      "submission": 6325,
      "pos_": 6326,
      "canon": 6327,
      "Target": 6328,
      "solution": 6329,
      "Host": 6330,
      "ISO": 6331,
      "notes": 6332,
      "Skip": 6333,
      "_header": 6334,
      "left_": 6335,
      "compress": 6336,
      "_result": 6337,
      "Coun": 6338,
      ".',": 6339,
      ")'": 6340,
      "GR": 6341,
      "Scal": 6342,
      "kill": 6343,
      "endar": 6344,
      "nail": 6345,
      "taken": 6346,
      "hours": 6347,
      "partitions": 6348,
      "Cor": 6349,
      "vm_": 6350,
      "boundary": 6351,
      "probability": 6352,
      "scripts": 6353,
      "spectr": 6354,
      "Clear": 6355,
      "asarray": 6356,
      "PAR": 6357,
      "_l": 6358,
      "interpre": 6359,
      "Directory": 6360,
      "pip": 6361,
      "atype": 6362,
      "('{": 6363,
      "balance": 6364,
      "Ass": 6365,
      "Replace": 6366,
      "mandatory": 6367,
      "CR": 6368,
      "_date": 6369,
      "bbox": 6370,
      "em": 6371,
      "eas": 6372,
      "chr": 6373,
      "s_name": 6374,
      "ENT": 6375,
      "views": 6376,
      "Rece": 6377,
      "pagin": 6378,
      ")(": 6379,
      "Fo": 6380,
      "filesystem": 6381,
      "(':": 6382,
      "chronous": 6383,
      "served": 6384,
      "')]": 6385,
      "VI": 6386,
      "('.')": 6387,
      "cancel": 6388,
      "retriev": 6389,
      "person": 6390,
      "Widget": 6391,
      "_1": 6392,
      "Exit": 6393,
      "ders": 6394,
      "comput": 6395,
      "intervals": 6396,
      "('--": 6397,
      "MB": 6398,
      "td": 6399,
      "tun": 6400,
      "decimal": 6401,
      "Draw": 6402,
      "era": 6403,
      "separate": 6404,
      "_handler": 6405,
      "magn": 6406,
      "Poly": 6407,
      "NotImplementedError": 6408,
      "vtk": 6409,
      "plots": 6410,
      "Feature": 6411,
      "answer": 6412,
      "Container": 6413,
      "{}:": 6414,
      "cumul": 6415,
      "leaf": 6416,
      "erarchy": 6417,
      "PA": 6418,
      "species": 6419,
      "ison": 6420,
      "sampling": 6421,
      "pho": 6422,
      "()),": 6423,
      "Writes": 6424,
      "ud_": 6425,
      "PIPE": 6426,
      "YA": 6427,
      "compliance": 6428,
      "sg": 6429,
      "foc": 6430,
      "argparse": 6431,
      "initialized": 6432,
      "Install": 6433,
      "Mapping": 6434,
      "Port": 6435,
      "nap": 6436,
      "suc": 6437,
      "activ": 6438,
      "Auto": 6439,
      "'+": 6440,
      "_v": 6441,
      "_event": 6442,
      "allowed_": 6443,
      "immediate": 6444,
      "Sample": 6445,
      "rp": 6446,
      "workspace": 6447,
      "LAN": 6448,
      "extent": 6449,
      "]*": 6450,
      "terminal": 6451,
      "_val": 6452,
      "streams": 6453,
      "rides": 6454,
      "obtain": 6455,
      "spin": 6456,
      "fastq": 6457,
      "guess": 6458,
      "Recur": 6459,
      "generic": 6460,
      "ftime": 6461,
      "Loads": 6462,
      "_command": 6463,
      "Iterable": 6464,
      "glyph": 6465,
      "rho": 6466,
      "Results": 6467,
      "_match": 6468,
      "ategy": 6469,
      "currency": 6470,
      "dest_": 6471,
      "deprecated": 6472,
      "_msg": 6473,
      "expres": 6474,
      "handling": 6475,
      "Fail": 6476,
      "connect_": 6477,
      "makedirs": 6478,
      "Int": 6479,
      "detail": 6480,
      "reci": 6481,
      "selected_": 6482,
      "scene": 6483,
      "_rate": 6484,
      "hooks": 6485,
      "Git": 6486,
      "valu": 6487,
      "runner": 6488,
      "Ali": 6489,
      "whitespace": 6490,
      "catch": 6491,
      "SSL": 6492,
      "approx": 6493,
      "depending": 6494,
      ".%": 6495,
      "repeat": 6496,
      "klass": 6497,
      "_file_": 6498,
      "brid": 6499,
      "Callback": 6500,
      "three": 6501,
      "bet": 6502,
      "computed": 6503,
      "samp": 6504,
      "quiet": 6505,
      "_tag": 6506,
      "unless": 6507,
      "*,": 6508,
      "substit": 6509,
      "splitlines": 6510,
      "utf8": 6511,
      "_db": 6512,
      "zz": 6513,
      "(\"/": 6514,
      "simp": 6515,
      "Options": 6516,
      "receiver": 6517,
      "ka": 6518,
      "cir": 6519,
      "c_int": 6520,
      "Calculates": 6521,
      "fron": 6522,
      "Required": 6523,
      "subj": 6524,
      "shif": 6525,
      "Generator": 6526,
      "p2": 6527,
      "redirect": 6528,
      "transfer": 6529,
      "account_": 6530,
      "sensi": 6531,
      "splitext": 6532,
      "represents": 6533,
      "assume": 6534,
      "ii": 6535,
      "cket_": 6536,
      "observ": 6537,
      "Cre": 6538,
      "inverse": 6539,
      "theme": 6540,
      "Null": 6541,
      "nc": 6542,
      "pillar": 6543,
      "Pool": 6544,
      "PRE": 6545,
      "xs": 6546,
      "rix": 6547,
      "common_": 6548,
      "Sho": 6549,
      "tol": 6550,
      "going": 6551,
      "bitr": 6552,
      "rgb": 6553,
      "snapsho": 6554,
      "report_": 6555,
      "compression": 6556,
      "exit_": 6557,
      "whole": 6558,
      "projects": 6559,
      "parse_args": 6560,
      "strftime": 6561,
      "derived": 6562,
      "plus": 6563,
      "executed": 6564,
      "stract": 6565,
      "qa": 6566,
      "YAML": 6567,
      "Hash": 6568,
      "x2": 6569,
      "alibr": 6570,
      "constraint": 6571,
      "shutdown": 6572,
      "active_": 6573,
      "ttl": 6574,
      "compressed": 6575,
      "Order": 6576,
      "=['": 6577,
      "Ax": 6578,
      "Salt": 6579,
      "good": 6580,
      "Computes": 6581,
      "ticks": 6582,
      "w_": 6583,
      "Merge": 6584,
      "ref_": 6585,
      "successfully": 6586,
      "hyper": 6587,
      "attachment": 6588,
      "deriv": 6589,
      "variants": 6590,
      "NOT": 6591,
      "receive": 6592,
      "ism": 6593,
      "disabled": 6594,
      "lying": 6595,
      "phra": 6596,
      "_max": 6597,
      "s1": 6598,
      "continu": 6599,
      "olds": 6600,
      "logical": 6601,
      "general": 6602,
      "ben": 6603,
      "fits": 6604,
      "coeff": 6605,
      "chunk_size": 6606,
      "Mode": 6607,
      "{:": 6608,
      "alive": 6609,
      "callbacks": 6610,
      "FIEL": 6611,
      "class_name": 6612,
      "resolver": 6613,
      "coverage": 6614,
      "SIZE": 6615,
      "Meta": 6616,
      "_by": 6617,
      "VE": 6618,
      "_and_": 6619,
      "ience": 6620,
      "station": 6621,
      "NING": 6622,
      "abort": 6623,
      "[:]": 6624,
      "full_": 6625,
      "rename": 6626,
      "getter": 6627,
      "contained": 6628,
      "FLAG": 6629,
      "estimator": 6630,
      "png": 6631,
      "plane": 6632,
      "Agent": 6633,
      "S3": 6634,
      "ace": 6635,
      "ators": 6636,
      "syntax": 6637,
      "Verify": 6638,
      "Execution": 6639,
      "mappings": 6640,
      "rad": 6641,
      "Bytes": 6642,
      "VALU": 6643,
      "h5": 6644,
      "_k": 6645,
      "eps": 6646,
      "sam": 6647,
      "walle": 6648,
      "gger": 6649,
      "exchange": 6650,
      "Stor": 6651,
      "art": 6652,
      "1024": 6653,
      "collect": 6654,
      "recogn": 6655,
      "attempts": 6656,
      "mapped": 6657,
      "_j": 6658,
      "ition": 6659,
      "qubits": 6660,
      "signals": 6661,
      "OT": 6662,
      "duplicate": 6663,
      "contract": 6664,
      "Jo": 6665,
      "_read": 6666,
      "ussian": 6667,
      "35": 6668,
      "LS": 6669,
      "ST_": 6670,
      "][\"": 6671,
      "_metadata": 6672,
      "imen": 6673,
      "canvas": 6674,
      "priv": 6675,
      "Environ": 6676,
      "1d": 6677,
      "Render": 6678,
      "horiz": 6679,
      "nick": 6680,
      "exe": 6681,
      "communic": 6682,
      "_folder": 6683,
      "basis": 6684,
      "decryp": 6685,
      "square": 6686,
      ",))": 6687,
      "gt": 6688,
      "reaction": 6689,
      "composition": 6690,
      "adds": 6691,
      "quality": 6692,
      "DD": 6693,
      "ux": 6694,
      "LETE": 6695,
      "Runs": 6696,
      ")/": 6697,
      "optionally": 6698,
      "_status": 6699,
      "candidates": 6700,
      "geom": 6701,
      "learning": 6702,
      "fallback": 6703,
      "P_": 6704,
      "lengths": 6705,
      "MAP": 6706,
      "Enti": 6707,
      "declar": 6708,
      "WH": 6709,
      "dum": 6710,
      "para": 6711,
      "confli": 6712,
      "dimensional": 6713,
      "found_": 6714,
      "accounts": 6715,
      "UTC": 6716,
      "Select": 6717,
      "RT": 6718,
      "atures": 6719,
      "Local": 6720,
      "waiting": 6721,
      "integers": 6722,
      "70": 6723,
      "Emp": 6724,
      "listener": 6725,
      "verbosity": 6726,
      "fraction": 6727,
      ")',": 6728,
      "hit": 6729,
      "gether": 6730,
      "_matrix": 6731,
      "solver": 6732,
      "_image": 6733,
      "previously": 6734,
      "gzip": 6735,
      "*=": 6736,
      "_query": 6737,
      "s2": 6738,
      "arm": 6739,
      "Usage": 6740,
      "byref": 6741,
      "player": 6742,
      "relev": 6743,
      "uniform": 6744,
      "Matrix": 6745,
      "tell": 6746,
      "500": 6747,
      "GU": 6748,
      "s_file": 6749,
      "NotFoundError": 6750,
      "Off": 6751,
      "_offset": 6752,
      "places": 6753,
      "_lock": 6754,
      "iterations": 6755,
      "_all": 6756,
      "phy": 6757,
      "findall": 6758,
      "cached_": 6759,
      "_for": 6760,
      "pal": 6761,
      "()``": 6762,
      "ably": 6763,
      "instanti": 6764,
      "phone": 6765,
      "attention": 6766,
      "predict": 6767,
      "minute": 6768,
      "transpose": 6769,
      "nonce": 6770,
      "Will": 6771,
      "inher": 6772,
      "atter": 6773,
      "secure": 6774,
      "Account": 6775,
      "used_": 6776,
      "creation": 6777,
      "windows": 6778,
      "magic": 6779,
      "_or": 6780,
      "tour": 6781,
      "includes": 6782,
      "Environment": 6783,
      "locked": 6784,
      "handles": 6785,
      "cmap": 6786,
      "rop": 6787,
      "andom": 6788,
      "ely": 6789,
      "chro": 6790,
      "Close": 6791,
      "ND": 6792,
      "ado": 6793,
      "output_dir": 6794,
      "_method": 6795,
      "cov": 6796,
      "append_": 6797,
      "Iterate": 6798,
      "_find_": 6799,
      "stypes": 6800,
      "todo": 6801,
      "stop_": 6802,
      "CONFI": 6803,
      "cam": 6804,
      "master_": 6805,
      "rev": 6806,
      "mole": 6807,
      "CSV": 6808,
      "_update_": 6809,
      "Proxy": 6810,
      "_connection": 6811,
      "subnet": 6812,
      ")\\": 6813,
      "Sum": 6814,
      "eq": 6815,
      "attached": 6816,
      "pus": 6817,
      "Const": 6818,
      "Seg": 6819,
      "]).": 6820,
      "Comple": 6821,
      "dc": 6822,
      "reset_": 6823,
      "sil": 6824,
      "parsers": 6825,
      "thumbnail": 6826,
      "_ip": 6827,
      "_shape": 6828,
      ">'": 6829,
      "sending": 6830,
      "Resol": 6831,
      "TA": 6832,
      "part_": 6833,
      "compute_": 6834,
      "describ": 6835,
      "river": 6836,
      "safe_": 6837,
      "dian": 6838,
      "defaultdict": 6839,
      "charset": 6840,
      "broker": 6841,
      "fri": 6842,
      "expon": 6843,
      "anything": 6844,
      "Deletes": 6845,
      "ru": 6846,
      "'':": 6847,
      "memory_": 6848,
      "artifact": 6849,
      "DATA": 6850,
      "_headers": 6851,
      "56": 6852,
      "RGB": 6853,
      "eg": 6854,
      "sel": 6855,
      "28": 6856,
      "Batch": 6857,
      "s_from_": 6858,
      "give": 6859,
      "itertools": 6860,
      "400": 6861,
      "_content": 6862,
      "margin": 6863,
      "Compon": 6864,
      "comparison": 6865,
      "_process": 6866,
      "defer": 6867,
      "NE": 6868,
      "wx": 6869,
      "_init": 6870,
      "assignment": 6871,
      "IS": 6872,
      "_input_": 6873,
      "hood": 6874,
      "UTF": 6875,
      "AGE": 6876,
      "dash": 6877,
      "wcs": 6878,
      "s_by_": 6879,
      "tice": 6880,
      "`)": 6881,
      "IF": 6882,
      "design": 6883,
      "west": 6884,
      "_cls": 6885,
      "cule": 6886,
      "stud": 6887,
      "_var": 6888,
      "Setup": 6889,
      "sever": 6890,
      "together": 6891,
      "_clean": 6892,
      "fragment": 6893,
      "DU": 6894,
      "_uri": 6895,
      "fact": 6896,
      "Section": 6897,
      "expires": 6898,
      "Custom": 6899,
      "viation": 6900,
      "locator": 6901,
      "decoder": 6902,
      "sib": 6903,
      "listed": 6904,
      "ValidationError": 6905,
      "git_": 6906,
      "Addi": 6907,
      "Django": 6908,
      "outcome": 6909,
      "rupt": 6910,
      "Should": 6911,
      "_score": 6912,
      "SELE": 6913,
      "AWS": 6914,
      "Profile": 6915,
      "_pb": 6916,
      "occurren": 6917,
      "scenar": 6918,
      "ets": 6919,
      "IN_": 6920,
      "Admin": 6921,
      "Reset": 6922,
      "neighbors": 6923,
      "]],": 6924,
      "widgets": 6925,
      "hashes": 6926,
      "{}).": 6927,
      "}]": 6928,
      "_cor": 6929,
      "Keyword": 6930,
      "MAX_": 6931,
      "Formatter": 6932,
      "conside": 6933,
      "Storage": 6934,
      "_instance": 6935,
      "ut_": 6936,
      "lugin": 6937,
      "authenticated": 6938,
      "cen": 6939,
      "accoun": 6940,
      "_manager": 6941,
      "fro": 6942,
      "uch": 6943,
      "AL_": 6944,
      "sures": 6945,
      "splits": 6946,
      "Vis": 6947,
      "mol": 6948,
      "Callable": 6949,
      "criteria": 6950,
      "phrase": 6951,
      "existing_": 6952,
      "cleanup": 6953,
      "underlying": 6954,
      "Description": 6955,
      "Pop": 6956,
      "PUT": 6957,
      "SM": 6958,
      "FORMAT": 6959,
      "comment_": 6960,
      "consumer": 6961,
      "converter": 6962,
      "px": 6963,
      "assets": 6964,
      "neur": 6965,
      "node_id": 6966,
      "init__": 6967,
      "non_": 6968,
      "routes": 6969,
      "And": 6970,
      "compatibility": 6971,
      "Den": 6972,
      "My": 6973,
      "hdf": 6974,
      "tau": 6975,
      "__init__": 6976,
      "extracted": 6977,
      "Application": 6978,
      "arbitr": 6979,
      "curr": 6980,
      "handled": 6981,
      "assert_": 6982,
      "_parse": 6983,
      "****": 6984,
      "refs": 6985,
      "04": 6986,
      "AA": 6987,
      "__file": 6988,
      "domains": 6989,
      "Prepare": 6990,
      "fft": 6991,
      "_proto": 6992,
      "ACE": 6993,
      "`):": 6994,
      "ifiers": 6995,
      "55": 6996,
      "ctype": 6997,
      "``'": 6998,
      "haz": 6999,
      "Popen": 7000,
      "jid": 7001,
      "'/'": 7002,
      "notific": 7003,
      "_LOGGER": 7004,
      "mtime": 7005,
      "xpath": 7006,
      "instrument": 7007,
      ":,": 7008,
      "residue": 7009,
      "considered": 7010,
      "wiki": 7011,
      "listdir": 7012,
      "formula": 7013,
      "evaluate": 7014,
      "SN": 7015,
      "sudo": 7016,
      "Project": 7017,
      "SSH": 7018,
      "Finds": 7019,
      "_handle": 7020,
      "inger": 7021,
      "Pi": 7022,
      "_level": 7023,
      "health": 7024,
      "containers": 7025,
      "_by_": 7026,
      "inv": 7027,
      "letter": 7028,
      "routine": 7029,
      "enough": 7030,
      "coin": 7031,
      "to_dict": 7032,
      "WN": 7033,
      "yes": 7034,
      "ROM": 7035,
      "stim": 7036,
      "endpoints": 7037,
      "Names": 7038,
      "Entity": 7039,
      "([\"": 7040,
      "globals": 7041,
      "AGE_": 7042,
      "Using": 7043,
      "YY": 7044,
      "_lines": 7045,
      "sertion": 7046,
      "cookies": 7047,
      "never": 7048,
      "win32": 7049,
      "calculated": 7050,
      "behavior": 7051,
      "66": 7052,
      "ENT_": 7053,
      "Move": 7054,
      "CL": 7055,
      "visit": 7056,
      "Tool": 7057,
      "magnitude": 7058,
      "redirect_": 7059,
      "ordering": 7060,
      "supports": 7061,
      "everything": 7062,
      "/'": 7063,
      "dom": 7064,
      "interfaces": 7065,
      "day_": 7066,
      "end_time": 7067,
      "decorated": 7068,
      "ni": 7069,
      "But": 7070,
      "laz": 7071,
      "_user": 7072,
      "fq": 7073,
      "noqa": 7074,
      "eigen": 7075,
      "able_": 7076,
      "simulation": 7077,
      "_region": 7078,
      "Empty": 7079,
      "Clean": 7080,
      "across": 7081,
      "ID_": 7082,
      "REQU": 7083,
      "step_": 7084,
      "pdb": 7085,
      "container_": 7086,
      "coroutine": 7087,
      "percentage": 7088,
      "_make_": 7089,
      "ire": 7090,
      "placeholder": 7091,
      "Plugin": 7092,
      "makes": 7093,
      "required_": 7094,
      "estimate": 7095,
      "Url": 7096,
      "wrong": 7097,
      "readline": 7098,
      "TEX": 7099,
      "executor": 7100,
      "[%": 7101,
      "CM": 7102,
      "getLogger": 7103,
      "cluster_": 7104,
      "mutation": 7105,
      "NU": 7106,
      "_color": 7107,
      "Loop": 7108,
      "sider": 7109,
      "']),": 7110,
      "linalg": 7111,
      "128": 7112,
      "approxim": 7113,
      "dence": 7114,
      "capture": 7115,
      "ING_": 7116,
      "_pos": 7117,
      "jar": 7118,
      "_catalog": 7119,
      "charge": 7120,
      "Append": 7121,
      "Role": 7122,
      "boo": 7123,
      "silent": 7124,
      "_ind": 7125,
      "work_dir": 7126,
      "ffi": 7127,
      "authenticate": 7128,
      "ategor": 7129,
      "better": 7130,
      "reak": 7131,
      "wild": 7132,
      "itable": 7133,
      "sync_": 7134,
      "dy_": 7135,
      "mq": 7136,
      "ume": 7137,
      "syste": 7138,
      "grid_": 7139,
      "world": 7140,
      "correlation": 7141,
      "Evalu": 7142,
      "_source": 7143,
      "Report": 7144,
      "outside": 7145,
      "overrides": 7146,
      "Child": 7147,
      "Trace": 7148,
      "encryption": 7149,
      "other_": 7150,
      "bytes_": 7151,
      "Boolean": 7152,
      "recursively": 7153,
      "notify": 7154,
      "DE_": 7155,
      "Dyn": 7156,
      "launch": 7157,
      "transformation": 7158,
      "_queue": 7159,
      "p1": 7160,
      "train_": 7161,
      "Simple": 7162,
      "_2": 7163,
      "ulate": 7164,
      "datastore": 7165,
      "These": 7166,
      "configur": 7167,
      "pected": 7168,
      "gress": 7169,
      "minor": 7170,
      "Control": 7171,
      "upgrade": 7172,
      "'.'": 7173,
      "_regex": 7174,
      "Maximum": 7175,
      "78": 7176,
      "──": 7177,
      "uld_": 7178,
      "neare": 7179,
      "ordin": 7180,
      "n_samples": 7181,
      "cipher": 7182,
      "particip": 7183,
      "CRE": 7184,
      "x00": 7185,
      "ands": 7186,
      "Exten": 7187,
      ":`.": 7188,
      "vider": 7189,
      "bytearray": 7190,
      "order_by": 7191,
      "Top": 7192,
      "_validate_": 7193,
      "pts": 7194,
      "_csv": 7195,
      "Determin": 7196,
      "58": 7197,
      "LEN": 7198,
      "_bytes": 7199,
      "(\"{": 7200,
      "tzinfo": 7201,
      "################": 7202,
      "bases": 7203,
      "Unit": 7204,
      "cloud_": 7205,
      "'#": 7206,
      "Flag": 7207,
      "sug": 7208,
      "acces": 7209,
      "writes": 7210,
      "anchor": 7211,
      "aa": 7212,
      "__file__": 7213,
      "Hist": 7214,
      "triple": 7215,
      "Random": 7216,
      "_graph": 7217,
      "`~": 7218,
      "Assign": 7219,
      "longer": 7220,
      "*(": 7221,
      "_full": 7222,
      "topics": 7223,
      "SELECT": 7224,
      "kit": 7225,
      "{}/": 7226,
      "passing": 7227,
      "astic": 7228,
      "organization": 7229,
      "press": 7230,
      "throw": 7231,
      "calendar": 7232,
      "learn": 7233,
      "(('": 7234,
      "Sort": 7235,
      "Shape": 7236,
      "finite": 7237,
      "panel": 7238,
      ">\\": 7239,
      "ju": 7240,
      "typing": 7241,
      "functools": 7242,
      "coefficients": 7243,
      "_tree": 7244,
      "_factor": 7245,
      "namespaces": 7246,
      "_details": 7247,
      "tempfile": 7248,
      "OPTION": 7249,
      "PS": 7250,
      "formatting": 7251,
      "ette": 7252,
      "Some": 7253,
      "iface": 7254,
      "(\"--": 7255,
      "_sid": 7256,
      "clause": 7257,
      "48": 7258,
      "retries": 7259,
      "lies": 7260,
      "variant_": 7261,
      "segment_": 7262,
      "wrap_": 7263,
      "rpc": 7264,
      "median": 7265,
      "explicitly": 7266,
      "_buffer": 7267,
      "ptr": 7268,
      "correctly": 7269,
      "hits": 7270,
      "Insert": 7271,
      "assumed": 7272,
      "renderer": 7273,
      "rd": 7274,
      "Acti": 7275,
      "shuff": 7276,
      "license": 7277,
      "page_size": 7278,
      "parser_": 7279,
      "effe": 7280,
      "project_id": 7281,
      "bench": 7282,
      "fut": 7283,
      "_file_path": 7284,
      "[{": 7285,
      "acc": 7286,
      "a2": 7287,
      "prun": 7288,
      "reversed": 7289,
      "retcode": 7290,
      "dating": 7291,
      "gno": 7292,
      "park": 7293,
      "Encode": 7294,
      "Package": 7295,
      "96": 7296,
      "Json": 7297,
      "']):": 7298,
      "vor": 7299,
      "\"\".": 7300,
      "Expected": 7301,
      "cache_": 7302,
      "incoming": 7303,
      "clients": 7304,
      "bucket_": 7305,
      "fileobj": 7306,
      "UB": 7307,
      "elap": 7308,
      "trust": 7309,
      "trim": 7310,
      "should_": 7311,
      "Unsupported": 7312,
      "replacement": 7313,
      "(\".": 7314,
      "Builds": 7315,
      "_send_": 7316,
      "dial": 7317,
      "chemy": 7318,
      "comma": 7319,
      "downloaded": 7320,
      "Reader": 7321,
      "Rule": 7322,
      "strap": 7323,
      "sical": 7324,
      "main_": 7325,
      "belon": 7326,
      "05": 7327,
      "Flow": 7328,
      "coer": 7329,
      "expressions": 7330,
      "mc": 7331,
      "ino": 7332,
      "bc": 7333,
      "}/{": 7334,
      "is_valid": 7335,
      "_form": 7336,
      "dst_": 7337,
      "(\"-": 7338,
      "26": 7339,
      "_output": 7340,
      "beat": 7341,
      "''):": 7342,
      "Stri": 7343,
      "match_": 7344,
      "!\")": 7345,
      "_df": 7346,
      "lower_": 7347,
      "mgr": 7348,
      "usu": 7349,
      "body_": 7350,
      "colour": 7351,
      ",'": 7352,
      "Bas": 7353,
      "ann": 7354,
      "mpa": 7355,
      "Position": 7356,
      "_col": 7357,
      "ased": 7358,
      "dm": 7359,
      "itation": 7360,
      "overrid": 7361,
      "logical_": 7362,
      "encoded_": 7363,
      "retrieved": 7364,
      "PI": 7365,
      "nm": 7366,
      "token_": 7367,
      "\"][": 7368,
      "Polic": 7369,
      "datas": 7370,
      "who": 7371,
      "bias": 7372,
      "Cursor": 7373,
      "Ids": 7374,
      "respec": 7375,
      "specs": 7376,
      "grou": 7377,
      "gateway": 7378,
      "beginning": 7379,
      "_cal": 7380,
      "dynamic": 7381,
      "arbitrary": 7382,
      "Yields": 7383,
      "onal": 7384,
      "unset": 7385,
      "pars": 7386,
      "Assertion": 7387,
      "Factory": 7388,
      "orders": 7389,
      "_init_": 7390,
      "batches": 7391,
      "testing": 7392,
      "activation": 7393,
      "pep": 7394,
      "exposure": 7395,
      "raster": 7396,
      "blocking": 7397,
      "component_": 7398,
      "Geo": 7399,
      "expired": 7400,
      "detect": 7401,
      "related_": 7402,
      "silon": 7403,
      "accur": 7404,
      "_remo": 7405,
      "WARNING": 7406,
      ">,": 7407,
      "model_name": 7408,
      "qualified": 7409,
      "95": 7410,
      "tur": 7411,
      "table_": 7412,
      "accepted": 7413,
      "secret_": 7414,
      "relevant": 7415,
      "OB": 7416,
      "ired": 7417,
      "ards": 7418,
      "wever": 7419,
      "output_file": 7420,
      "xrange": 7421,
      "working_": 7422,
      "address_": 7423,
      "~~": 7424,
      "Types": 7425,
      "routing": 7426,
      "*.": 7427,
      "Stack": 7428,
      "oring": 7429,
      "cast_": 7430,
      "metric_": 7431,
      "44": 7432,
      "ince": 7433,
      "getting": 7434,
      "sessions": 7435,
      "Descriptor": 7436,
      "_remove": 7437,
      "cv": 7438,
      "real_": 7439,
      "likeli": 7440,
      "gid": 7441,
      "ERE": 7442,
      "Syntax": 7443,
      "setup_": 7444,
      "xi": 7445,
      "seu": 7446,
      "extern": 7447,
      "suitable": 7448,
      "raise_": 7449,
      "ycle": 7450,
      "floats": 7451,
      "...,": 7452,
      "pkg_": 7453,
      "scopes": 7454,
      "Determines": 7455,
      "moment": 7456,
      "possib": 7457,
      "destro": 7458,
      "boxes": 7459,
      "exactly": 7460,
      "aws_": 7461,
      "Sends": 7462,
      "_load_": 7463,
      "RE_": 7464,
      "graphs": 7465,
      "specifying": 7466,
      "increment": 7467,
      "document_": 7468,
      "prefixes": 7469,
      "Protocol": 7470,
      "pow": 7471,
      "tage": 7472,
      "timeout_": 7473,
      "Dete": 7474,
      "distances": 7475,
      "reload": 7476,
      "circ": 7477,
      "Interface": 7478,
      "insert_": 7479,
      "method_name": 7480,
      "27": 7481,
      "UUID": 7482,
      "cutoff": 7483,
      "gradebook": 7484,
      "_min": 7485,
      "epsilon": 7486,
      "UTH": 7487,
      "duplicates": 7488,
      "\">": 7489,
      "Dump": 7490,
      "extr": 7491,
      "float64": 7492,
      "ird": 7493,
      "modific": 7494,
      "array_like": 7495,
      "issubclass": 7496,
      "Core": 7497,
      "rather": 7498,
      "lif": 7499,
      "sic": 7500,
      "concatenate": 7501,
      "resize": 7502,
      "twilio": 7503,
      "immediately": 7504,
      "31": 7505,
      "tc": 7506,
      "Keys": 7507,
      "NaN": 7508,
      "bridge": 7509,
      "Te": 7510,
      "](": 7511,
      "Authorization": 7512,
      "1D": 7513,
      "POR": 7514,
      "Scan": 7515,
      "()}": 7516,
      "frozen": 7517,
      "\"<": 7518,
      "EM": 7519,
      "gc": 7520,
      "trying": 7521,
      "....": 7522,
      "lattice": 7523,
      "Identifier": 7524,
      "FLAGS": 7525,
      "Main": 7526,
      "Uses": 7527,
      "strategy": 7528,
      "ledge": 7529,
      "population": 7530,
      "endpoint_": 7531,
      "sky": 7532,
      "OperationFailed": 7533,
      "issu": 7534,
      "mock": 7535,
      "act_": 7536,
      "orientation": 7537,
      "y1": 7538,
      "patial": 7539,
      "s_dir": 7540,
      "ancestor": 7541,
      "flask": 7542,
      "outdir": 7543,
      "mapper": 7544,
      "Flu": 7545,
      "coll": 7546,
      "Glob": 7547,
      "nr": 7548,
      "adv": 7549,
      "STAR": 7550,
      "replaced": 7551,
      "aux": 7552,
      "ward_": 7553,
      "public_key": 7554,
      "quantity": 7555,
      "simply": 7556,
      "DELETE": 7557,
      "molecule": 7558,
      "wheel": 7559,
      "batch_": 7560,
      "alphab": 7561,
      "_interface": 7562,
      "legend": 7563,
      "mal": 7564,
      "spice": 7565,
      "ERS": 7566,
      "dead": 7567,
      "deps": 7568,
      "bindings": 7569,
      "Lim": 7570,
      "arn": 7571,
      "spectrum": 7572,
      "2f": 7573,
      ":],": 7574,
      "python_": 7575,
      "FROM": 7576,
      "Script": 7577,
      "closing": 7578,
      "identify": 7579,
      "legal": 7580,
      "_cap": 7581,
      "cleaned": 7582,
      "WE": 7583,
      "tp": 7584,
      "unused": 7585,
      "exper": 7586,
      "Integer": 7587,
      "({})": 7588,
      "Don": 7589,
      "develo": 7590,
      "newline": 7591,
      "service_name": 7592,
      "calculation": 7593,
      "observed": 7594,
      "recipe": 7595,
      "sensitive": 7596,
      "Ste": 7597,
      "logged": 7598,
      "sha1": 7599,
      "_flags": 7600,
      "mongo": 7601,
      "scenario": 7602,
      "_column": 7603,
      "tid": 7604,
      "dist_": 7605,
      "shapes": 7606,
      "stopped": 7607,
      "=>": 7608,
      "ceeded": 7609,
      "fake": 7610,
      "number_of_": 7611,
      "horizont": 7612,
      "Grid": 7613,
      "zed": 7614,
      "wire": 7615,
      "marks": 7616,
      "OF": 7617,
      "ube": 7618,
      "memo": 7619,
      "measurement": 7620,
      "Settings": 7621,
      "_run": 7622,
      "fs_": 7623,
      "soup": 7624,
      "_bam": 7625,
      "observation": 7626,
      "topology": 7627,
      "agent_": 7628,
      "compiler": 7629,
      "vpc": 7630,
      "versal": 7631,
      "comps": 7632,
      "fine": 7633,
      "tenan": 7634,
      "adjac": 7635,
      "Ap": 7636,
      "restore": 7637,
      "scroll": 7638,
      "start_date": 7639,
      "redentials": 7640,
      "Volume": 7641,
      "markdown": 7642,
      "Pos": 7643,
      "_op": 7644,
      "Seq": 7645,
      "properly": 7646,
      "imported": 7647,
      "ensure_": 7648,
      "confidence": 7649,
      "Component": 7650,
      "ategory": 7651,
      "[]):": 7652,
      "critical": 7653,
      "Additional": 7654,
      "AST": 7655,
      "open_": 7656,
      "_dirs": 7657,
      "factors": 7658,
      "contact": 7659,
      "_nodes": 7660,
      "_vars": 7661,
      "':'": 7662,
      "detector": 7663,
      "pressure": 7664,
      "39": 7665,
      "'^": 7666,
      "Cap": 7667,
      "performed": 7668,
      "download_": 7669,
      "userid": 7670,
      "Policy": 7671,
      "('<": 7672,
      "error_message": 7673,
      "aggregate": 7674,
      "HttpResponse": 7675,
      "|=": 7676,
      "sect": 7677,
      "ress_": 7678,
      "current_app": 7679,
      "StringIO": 7680,
      "ip_address": 7681,
      "CC": 7682,
      "LL": 7683,
      "_attr": 7684,
      "_api": 7685,
      "stride": 7686,
      "group_id": 7687,
      "front": 7688,
      "describing": 7689,
      "Fix": 7690,
      "_default_": 7691,
      "tl": 7692,
      "impl": 7693,
      "AssertionError": 7694,
      "%%": 7695,
      "calibr": 7696,
      "kwarg": 7697,
      "mkdir": 7698,
      "percenti": 7699,
      "focus": 7700,
      "med_": 7701,
      "portal": 7702,
      "transforms": 7703,
      "sqlite": 7704,
      "custom_": 7705,
      "_records": 7706,
      "mount_": 7707,
      "ips": 7708,
      "indicator": 7709,
      "acl": 7710,
      "arc": 7711,
      "analysis_": 7712,
      "suggest": 7713,
      "Sty": 7714,
      "ONE": 7715,
      "ical_": 7716,
      "merge_": 7717,
      "indexed": 7718,
      "MAC": 7719,
      "positor": 7720,
      "policies": 7721,
      "Handles": 7722,
      "hierarchy": 7723,
      "W_": 7724,
      "bb": 7725,
      "torch": 7726,
      "networks": 7727,
      "secondary": 7728,
      "DateTime": 7729,
      "instruction": 7730,
      "DA": 7731,
      "b64": 7732,
      "ended": 7733,
      "([[": 7734,
      "hashlib": 7735,
      "care": 7736,
      "disco": 7737,
      "decoded": 7738,
      "published": 7739,
      "_sup": 7740,
      "_desc": 7741,
      "languages": 7742,
      "problems": 7743,
      "protein": 7744,
      "ons": 7745,
      "_namespace": 7746,
      "traject": 7747,
      "task_id": 7748,
      "ency_": 7749,
      "fr": 7750,
      "lt": 7751,
      "endian": 7752,
      "Files": 7753,
      "half": 7754,
      "bio": 7755,
      "ln": 7756,
      "sample_": 7757,
      "extended": 7758,
      "mediator": 7759,
      "Root": 7760,
      "AUTH": 7761,
      "combined": 7762,
      "mechan": 7763,
      "')):": 7764,
      "urlparse": 7765,
      "Timestamp": 7766,
      "maybe": 7767,
      "IM": 7768,
      "ero": 7769,
      "install_": 7770,
      "disconnect": 7771,
      "SCR": 7772,
      "38": 7773,
      "{}.": 7774,
      "scheduler": 7775,
      "neighbor": 7776,
      "infile": 7777,
      "s_for_": 7778,
      "scales": 7779,
      "EV": 7780,
      "item_": 7781,
      "opened": 7782,
      "_close": 7783,
      "kv": 7784,
      "stores": 7785,
      "voke": 7786,
      "things": 7787,
      "periods": 7788,
      "determined": 7789,
      "21": 7790,
      "Pla": 7791,
      "episo": 7792,
      "TEMP": 7793,
      ")+": 7794,
      "resource_id": 7795,
      "indicate": 7796,
      "datatype": 7797,
      "hide": 7798,
      "predictions": 7799,
      "Transaction": 7800,
      "Ta": 7801,
      "Performs": 7802,
      "consistent": 7803,
      "nearest": 7804,
      "_def": 7805,
      "_space": 7806,
      ",),": 7807,
      "wall": 7808,
      "classification": 7809,
      "lerance": 7810,
      "Namespace": 7811,
      "ysis": 7812,
      "queues": 7813,
      "chosen": 7814,
      "buffer_": 7815,
      "Iteration": 7816,
      "inds": 7817,
      "deli": 7818,
      "get_all_": 7819,
      "asa": 7820,
      "probably": 7821,
      "Registry": 7822,
      "USER": 7823,
      "Attempt": 7824,
      "_module": 7825,
      "gp": 7826,
      "porter": 7827,
      "template_name": 7828,
      "relations": 7829,
      "CB": 7830,
      "expanduser": 7831,
      "imports": 7832,
      "Tot": 7833,
      "combine": 7834,
      "Binary": 7835,
      "c2": 7836,
      "inline": 7837,
      "ventory": 7838,
      ")],": 7839,
      "_with_": 7840,
      "verb": 7841,
      "detected": 7842,
      "interpolation": 7843,
      "c1": 7844,
      "s_per_": 7845,
      "event_data": 7846,
      "transactions": 7847,
      "ib": 7848,
      "curr_": 7849,
      "removing": 7850,
      "crypto": 7851,
      "requirement": 7852,
      "!')": 7853,
      "ising": 7854,
      "idx_": 7855,
      "{}\\": 7856,
      "invoke": 7857,
      "La": 7858,
      "anno": 7859,
      "lik": 7860,
      "Upload": 7861,
      "vox": 7862,
      "private_key": 7863,
      "INTER": 7864,
      "_q": 7865,
      "tered_": 7866,
      "iterate": 7867,
      "skip_": 7868,
      "('/')": 7869,
      "Af": 7870,
      "WA": 7871,
      "scaling": 7872,
      "Analysis": 7873,
      "3D": 7874,
      "3d": 7875,
      "42": 7876,
      "_parameters": 7877,
      "scatter": 7878,
      "volumes": 7879,
      "shuffle": 7880,
      "Cho": 7881,
      "config_path": 7882,
      "pw": 7883,
      "orth": 7884,
      "covariance": 7885,
      "chart": 7886,
      "identifiers": 7887,
      "ighe": 7888,
      "potenti": 7889,
      "compose": 7890,
      "expand_": 7891,
      "Symbol": 7892,
      "\"+": 7893,
      "_con": 7894,
      "cel": 7895,
      "restart": 7896,
      "ables": 7897,
      "calc_": 7898,
      "_pk": 7899,
      "requency": 7900,
      "hardware": 7901,
      "friend": 7902,
      "tract": 7903,
      "generation": 7904,
      "weighted": 7905,
      "occurred": 7906,
      "_w": 7907,
      "ylabel": 7908,
      "groupby": 7909,
      "raw_data": 7910,
      "provides": 7911,
      "_proxy": 7912,
      "object_id": 7913,
      "radians": 7914,
      "credential": 7915,
      "consider": 7916,
      "offset_": 7917,
      "commit_": 7918,
      "policy_": 7919,
      "indicates": 7920,
      "Font": 7921,
      "uation": 7922,
      "yiel": 7923,
      "admin_": 7924,
      "mater": 7925,
      "Future": 7926,
      "today": 7927,
      "senten": 7928,
      "evid": 7929,
      "refer": 7930,
      "converts": 7931,
      "chedule": 7932,
      "_block": 7933,
      "_link": 7934,
      "pf": 7935,
      "illi": 7936,
      "minim": 7937,
      "RES": 7938,
      "similarity": 7939,
      "Turn": 7940,
      "_Get": 7941,
      "recomm": 7942,
      "_cer": 7943,
      "assemb": 7944,
      "translations": 7945,
      "alt_": 7946,
      "--------------------------------": 7947,
      "mpaign": 7948,
      "MIN": 7949,
      "finger": 7950,
      "frac": 7951,
      "DR": 7952,
      "hs": 7953,
      "cube": 7954,
      "Serialize": 7955,
      "Authentication": 7956,
      "notation": 7957,
      "trial": 7958,
      "Export": 7959,
      "choose": 7960,
      "TION_": 7961,
      "lstrip": 7962,
      "vert": 7963,
      "_profile": 7964,
      "_e": 7965,
      "xlabel": 7966,
      "app_": 7967,
      "Vir": 7968,
      "CII": 7969,
      "wt": 7970,
      "propa": 7971,
      "hot": 7972,
      "quick": 7973,
      "37": 7974,
      "Either": 7975,
      "ov": 7976,
      "s_by": 7977,
      "Redis": 7978,
      "Tab": 7979,
      "VIC": 7980,
      "tip": 7981,
      "aper": 7982,
      "copied": 7983,
      "equation": 7984,
      "Enabled": 7985,
      "PDF": 7986,
      "rea": 7987,
      "Cons": 7988,
      "represented": 7989,
      "identified": 7990,
      "Google": 7991,
      "interest": 7992,
      "assessment": 7993,
      "literal": 7994,
      "likelihood": 7995,
      "become": 7996,
      "compound": 7997,
      "Keyboard": 7998,
      "satis": 7999,
      "Failure": 8000,
      "Flo": 8001,
      "z_": 8002,
      "ord_": 8003,
      "listing": 8004,
      "omit": 8005,
      "directed": 8006,
      "normaliz": 8007,
      "package_name": 8008,
      "random_": 8009,
      "ParseError": 8010,
      "TYPES": 8011,
      "SHA": 8012,
      "cks": 8013,
      "encrypted": 8014,
      "registration": 8015,
      ")-": 8016,
      "inx": 8017,
      "markers": 8018,
      "possibly": 8019,
      "Ed": 8020,
      "log_level": 8021,
      "canonical": 8022,
      "authoriz": 8023,
      "Igno": 8024,
      "PER": 8025,
      "_loop": 8026,
      "iff": 8027,
      "itch": 8028,
      "prevent": 8029,
      "pkt": 8030,
      "ASCII": 8031,
      "Func": 8032,
      "viewer": 8033,
      "attachments": 8034,
      "Builder": 8035,
      "saniti": 8036,
      "'},": 8037,
      "={}": 8038,
      "PN": 8039,
      "photo": 8040,
      "MD": 8041,
      "veloc": 8042,
      "grp": 8043,
      "aligned": 8044,
      "_client_": 8045,
      "OUT": 8046,
      "ticket": 8047,
      "REST": 8048,
      "simpl": 8049,
      "_PATH": 8050,
      "Structure": 8051,
      "int64": 8052,
      "transformed": 8053,
      "fonts": 8054,
      "netloc": 8055,
      "Domain": 8056,
      "_summary": 8057,
      "moti": 8058,
      "ground_": 8059,
      "dense": 8060,
      "READ": 8061,
      "OR_": 8062,
      "structures": 8063,
      "piece": 8064,
      "'[": 8065,
      "JEC": 8066,
      "Pay": 8067,
      "timeseries": 8068,
      "relpath": 8069,
      "bootstrap": 8070,
      "anon": 8071,
      "))]": 8072,
      "argspec": 8073,
      "Database": 8074,
      "leading": 8075,
      "mor": 8076,
      "smooth": 8077,
      "45": 8078,
      "repli": 8079,
      "mav": 8080,
      "Ma": 8081,
      "TT": 8082,
      "_parser": 8083,
      "_root": 8084,
      "ast_": 8085,
      "hexdigest": 8086,
      "optimizer": 8087,
      "Recursively": 8088,
      "SCRIP": 8089,
      "km": 8090,
      "fered": 8091,
      "referenced": 8092,
      "customer": 8093,
      "artist": 8094,
      "trailing": 8095,
      "_stream": 8096,
      "ifo": 8097,
      "dialect": 8098,
      "_write": 8099,
      "ranch": 8100,
      "sha256": 8101,
      "UNI": 8102,
      "leave": 8103,
      "()).": 8104,
      "calc": 8105,
      "positional": 8106,
      "Style": 8107,
      "Total": 8108,
      "out_dir": 8109,
      "HTTPError": 8110,
      "interpolate": 8111,
      "derivative": 8112,
      "fy_": 8113,
      "py3": 8114,
      "full_path": 8115,
      "solve": 8116,
      "helpers": 8117,
      "180": 8118,
      "ral": 8119,
      "entropy": 8120,
      "sphere": 8121,
      "occ": 8122,
      "nonzero": 8123,
      "_replace": 8124,
      "accepts": 8125,
      "_runtime": 8126,
      "ier": 8127,
      "instance_id": 8128,
      "__get_": 8129,
      "compat": 8130,
      "particle": 8131,
      "aggregation": 8132,
      "ExecutionError": 8133,
      "systems": 8134,
      "Lin": 8135,
      "Put": 8136,
      "fer_": 8137,
      "m2": 8138,
      "smar": 8139,
      "acquire": 8140,
      "URLs": 8141,
      "bj": 8142,
      "bp": 8143,
      "orts": 8144,
      "mouse": 8145,
      "FILE_": 8146,
      "NullArgument": 8147,
      "_at": 8148,
      "urther": 8149,
      "objs": 8150,
      "discrete": 8151,
      "limit_": 8152,
      "palette": 8153,
      "interactive": 8154,
      "produce": 8155,
      "much": 8156,
      "swap": 8157,
      "filtered_": 8158,
      "chains": 8159,
      "\"{}\"": 8160,
      "_timeout": 8161,
      "Clust": 8162,
      "_stack": 8163,
      "_last_": 8164,
      "_pool": 8165,
      "nat": 8166,
      "_solution": 8167,
      "Word": 8168,
      "ush": 8169,
      "expire": 8170,
      "seudo": 8171,
      "sentences": 8172,
      "Next": 8173,
      "redis_": 8174,
      "subscribe": 8175,
      "computation": 8176,
      "WHERE": 8177,
      "rst": 8178,
      "inp": 8179,
      "ident": 8180,
      "datacenter": 8181,
      "checkpoint": 8182,
      "corr": 8183,
      "matrices": 8184,
      "alternative": 8185,
      "voxel": 8186,
      "Sol": 8187,
      "void": 8188,
      "border": 8189,
      "clock": 8190,
      "ko": 8191,
      "tup": 8192,
      "shortcut": 8193,
      "pex": 8194,
      "FIXME": 8195,
      "Denied": 8196,
      "won": 8197,
      "destroy": 8198,
      "COM": 8199,
      "allele": 8200,
      "applies": 8201,
      "titles": 8202,
      "threading": 8203,
      "77": 8204,
      "hdu": 8205,
      "box_": 8206,
      "mitive": 8207,
      "MODE": 8208,
      "highe": 8209,
      "ned": 8210,
      "cur_": 8211,
      "NotExist": 8212,
      "crop": 8213,
      "potential": 8214,
      "Basic": 8215,
      "OU": 8216,
      "song": 8217,
      "city": 8218,
      "repositor": 8219,
      "tenv": 8220,
      "visu": 8221,
      "FFFF": 8222,
      "evidence": 8223,
      "'$": 8224,
      "occurs": 8225,
      "reached": 8226,
      "Fl": 8227,
      "ial_": 8228,
      "capacity": 8229,
      "]}": 8230,
      "infer": 8231,
      "lig": 8232,
      "_flag": 8233,
      "Unexpected": 8234,
      "query_params": 8235,
      "Prefix": 8236,
      "Offset": 8237,
      "Av": 8238,
      "rn": 8239,
      "cards": 8240,
      "Dimen": 8241,
      "Non": 8242,
      "_env": 8243,
      "tensors": 8244,
      "vertical": 8245,
      "buckets": 8246,
      "StopIteration": 8247,
      "notifications": 8248,
      "TCP": 8249,
      "touch": 8250,
      "roots": 8251,
      "per_page": 8252,
      "RED": 8253,
      "Attributes": 8254,
      "_results": 8255,
      "dns": 8256,
      "stub": 8257,
      "slash": 8258,
      "BY": 8259,
      "Bit": 8260,
      "ever": 8261,
      "leader": 8262,
      "('#": 8263,
      "unity": 8264,
      "Configure": 8265,
      "naif": 8266,
      "=''):": 8267,
      "May": 8268,
      "ims": 8269,
      "rendered": 8270,
      "(\",": 8271,
      "overflow": 8272,
      "_CH": 8273,
      "COL": 8274,
      "bounding": 8275,
      "ye": 8276,
      "inner_": 8277,
      "urlen": 8278,
      "tok": 8279,
      "vers": 8280,
      "agents": 8281,
      "max_length": 8282,
      "Raw": 8283,
      "additional_": 8284,
      "_order": 8285,
      "pout": 8286,
      "elect": 8287,
      "wait_for_": 8288,
      "weld_": 8289,
      "(`": 8290,
      "ante": 8291,
      "tide": 8292,
      "newly": 8293,
      "ected": 8294,
      "having": 8295,
      "auth_": 8296,
      "Extracts": 8297,
      "{!": 8298,
      "tesian": 8299,
      "making": 8300,
      "sibl": 8301,
      "[::-": 8302,
      "Attach": 8303,
      "defines": 8304,
      "ArgumentParser": 8305,
      "store_true": 8306,
      "short_": 8307,
      "pieces": 8308,
      "stroke": 8309,
      "recognized": 8310,
      "PID": 8311,
      "_groups": 8312,
      "spi": 8313,
      "_copy": 8314,
      "stone": 8315,
      "Conven": 8316,
      "filtering": 8317,
      "...\")": 8318,
      "displayed": 8319,
      "ConnectionError": 8320,
      "Region": 8321,
      "({\"": 8322,
      "_settings": 8323,
      "cons": 8324,
      "random_state": 8325,
      "end_date": 8326,
      "evaluation": 8327,
      "Width": 8328,
      "linked": 8329,
      "localhost": 8330,
      "symlink": 8331,
      "_items": 8332,
      "fpath": 8333,
      "tems": 8334,
      "('{}": 8335,
      "packed": 8336,
      "observations": 8337,
      "CN": 8338,
      "_action": 8339,
      "tolerance": 8340,
      "retval": 8341,
      "branches": 8342,
      "Socket": 8343,
      "truncate": 8344,
      "Virt": 8345,
      "%.": 8346,
      "ASE": 8347,
      "Email": 8348,
      "bum": 8349,
      "arrow": 8350,
      "resample": 8351,
      "s_data": 8352,
      "overlay": 8353,
      "visor": 8354,
      "Prints": 8355,
      "percentile": 8356,
      "DATE": 8357,
      "Pe": 8358,
      "getcwd": 8359,
      "label_": 8360,
      "Buff": 8361,
      "SubElement": 8362,
      "Creating": 8363,
      "urlencode": 8364,
      "Bar": 8365,
      "kwds": 8366,
      "axis_": 8367,
      "_decode": 8368,
      "asynchronous": 8369,
      "chromo": 8370,
      "session_id": 8371,
      "cache_key": 8372,
      "seqs": 8373,
      "Calls": 8374,
      "ratic": 8375,
      "NDArray": 8376,
      "_handle_": 8377,
      "setLevel": 8378,
      "filled": 8379,
      "geno": 8380,
      "far": 8381,
      "compiled": 8382,
      "presence": 8383,
      "Override": 8384,
      "reports": 8385,
      "asing": 8386,
      "unds": 8387,
      "MESS": 8388,
      "timestamps": 8389,
      ")\",": 8390,
      "column_name": 8391,
      "_with": 8392,
      "Makes": 8393,
      "broadcast": 8394,
      "AD_": 8395,
      "cron": 8396,
      "dw": 8397,
      "ives": 8398,
      "abbre": 8399,
      "CommandExecutionError": 8400,
      "others": 8401,
      "font_": 8402,
      "Align": 8403,
      "_open": 8404,
      "full_name": 8405,
      "artifact_": 8406,
      "wallet": 8407,
      "Enum": 8408,
      "Hub": 8409,
      "in_file": 8410,
      "season": 8411,
      "_flow": 8412,
      "centers": 8413,
      "looking": 8414,
      "loaded_": 8415,
      "stmts": 8416,
      "conflict": 8417,
      "nado": 8418,
      "pth": 8419,
      "{{": 8420,
      "observer": 8421,
      "version_info": 8422,
      "_reference": 8423,
      "2000": 8424,
      "serialization": 8425,
      "extras": 8426,
      "OAuth": 8427,
      "normalization": 8428,
      "LIB": 8429,
      "SY": 8430,
      "journ": 8431,
      "expiration": 8432,
      "Pipe": 8433,
      "_iter": 8434,
      "_body": 8435,
      "really": 8436,
      "bound_": 8437,
      "snapshots": 8438,
      "rx": 8439,
      "Part": 8440,
      "DoesNotExist": 8441,
      "BEL": 8442,
      "ns_": 8443,
      "lem": 8444,
      "opt_": 8445,
      "gies": 8446,
      "modes": 8447,
      "SUB": 8448,
      "_only": 8449,
      "async_": 8450,
      "_PRO": 8451,
      "bulk": 8452,
      "'``": 8453,
      "dct": 8454,
      "Validates": 8455,
      "frequencies": 8456,
      "discover": 8457,
      "_single": 8458,
      "add_option": 8459,
      "default_value": 8460,
      "ULL": 8461,
      "Decimal": 8462,
      "Fill": 8463,
      "aio": 8464,
      "profile_": 8465,
      "LED": 8466,
      "java": 8467,
      "CES": 8468,
      "Ph": 8469,
      "vc": 8470,
      "()`": 8471,
      "preserve": 8472,
      "runas": 8473,
      "deployment": 8474,
      "DNS": 8475,
      "likely": 8476,
      "dry_": 8477,
      "shared_": 8478,
      "Jav": 8479,
      ")``": 8480,
      "SK": 8481,
      "bit_": 8482,
      "gpu": 8483,
      "various": 8484,
      "folders": 8485,
      "purpose": 8486,
      "=\"\",": 8487,
      "hint": 8488,
      "Definition": 8489,
      "IR": 8490,
      "__module": 8491,
      "sph": 8492,
      "angular": 8493,
      "descend": 8494,
      "Iterator": 8495,
      "recipi": 8496,
      "stu": 8497,
      "_fetch": 8498,
      "randint": 8499,
      "activate": 8500,
      "fill_value": 8501,
      "larger": 8502,
      "Partition": 8503,
      "Cer": 8504,
      "_process_": 8505,
      "))))": 8506,
      "__version": 8507,
      "collector": 8508,
      "Assess": 8509,
      "middleware": 8510,
      "PermissionDenied": 8511,
      "Step": 8512,
      ":\")": 8513,
      "_lookup": 8514,
      "posed": 8515,
      "ROOT": 8516,
      "Executes": 8517,
      "Tit": 8518,
      "_entry": 8519,
      "ented": 8520,
      "authorized": 8521,
      "generators": 8522,
      "Generic": 8523,
      "migr": 8524,
      "modname": 8525,
      "output_path": 8526,
      "RFC": 8527,
      "85": 8528,
      "new_data": 8529,
      "handler_": 8530,
      "atives": 8531,
      "_inputs": 8532,
      "usually": 8533,
      "Saves": 8534,
      "peer_": 8535,
      "summar": 8536,
      "distin": 8537,
      "TE_": 8538,
      "_position": 8539,
      "_labels": 8540,
      "ij": 8541,
      "attr_name": 8542,
      "parser_mediator": 8543,
      "Ori": 8544,
      "etag": 8545,
      "))[": 8546,
      "item_id": 8547,
      "saltenv": 8548,
      "SystemExit": 8549,
      "tenant_id": 8550,
      "Men": 8551,
      "ancer": 8552,
      "logfile": 8553,
      "_req": 8554,
      "wagger": 8555,
      "avg": 8556,
      "device_id": 8557,
      "upper_": 8558,
      "sampler": 8559,
      "subject_": 8560,
      "chromosome": 8561,
      "elt": 8562,
      "usr": 8563,
      "field_type": 8564,
      "300": 8565,
      "tit": 8566,
      "ctl": 8567,
      "depends": 8568,
      "Media": 8569,
      "building": 8570,
      "bucket_name": 8571,
      "artifacts": 8572,
      "strand": 8573,
      "new_name": 8574,
      "velength": 8575,
      "Manage": 8576,
      "V_": 8577,
      "_raw": 8578,
      "hub": 8579,
      "elastic": 8580,
      "up_": 8581,
      ":\",": 8582,
      "_current_": 8583,
      "}\")": 8584,
      "Buffer": 8585,
      "profiles": 8586,
      "nets": 8587,
      "cert_": 8588,
      "=',": 8589,
      "Full": 8590,
      "water": 8591,
      "multipli": 8592,
      "protobuf": 8593,
      "Comment": 8594,
      "Accept": 8595,
      "drop_": 8596,
      "/.": 8597,
      "MAR": 8598,
      "N_": 8599,
      "recv": 8600,
      "([(": 8601,
      "terminate": 8602,
      "please": 8603,
      "Combin": 8604,
      "References": 8605,
      "joint": 8606,
      "dtypes": 8607,
      "communicate": 8608,
      "EST": 8609,
      "display_name": 8610,
      "drive": 8611,
      "Since": 8612,
      "metry": 8613,
      "Engine": 8614,
      "several": 8615,
      "Virtual": 8616,
      "fli": 8617,
      "ssl_": 8618,
      "measurements": 8619,
      "transitions": 8620,
      "Limit": 8621,
      "jinj": 8622,
      "returncode": 8623,
      "heap": 8624,
      "\",\"": 8625,
      "Fetches": 8626,
      "d1": 8627,
      "ian": 8628,
      "xy_": 8629,
      "tify": 8630,
      "RDF": 8631,
      "rich": 8632,
      "updating": 8633,
      "dock": 8634,
      "page_": 8635,
      "Loader": 8636,
      "Remote": 8637,
      "__module__": 8638,
      "yields": 8639,
      "doctest": 8640,
      "ABLE_": 8641,
      "Interval": 8642,
      "CPU": 8643,
      "_py": 8644,
      "_load": 8645,
      "milli": 8646,
      "sla": 8647,
      "fid": 8648,
      "sense": 8649,
      "zones": 8650,
      "corresponds": 8651,
      "mechanism": 8652,
      "Pandas": 8653,
      "Util": 8654,
      "respect": 8655,
      "doing": 8656,
      "_bi": 8657,
      "29": 8658,
      "Big": 8659,
      "shuti": 8660,
      "iment_": 8661,
      "Starts": 8662,
      "brok": 8663,
      "Normalize": 8664,
      "Success": 8665,
      "experiment_": 8666,
      "i2": 8667,
      "att": 8668,
      "cally": 8669,
      "input_file": 8670,
      "circle": 8671,
      "CONFIG": 8672,
      "_run_": 8673,
      "ior": 8674,
      "roid": 8675,
      "date_": 8676,
      "_inte": 8677,
      "api_version": 8678,
      "CE_": 8679,
      "TF": 8680,
      "lots": 8681,
      "lid": 8682,
      "motor": 8683,
      "ised": 8684,
      "cesses": 8685,
      "letters": 8686,
      "gui": 8687,
      "deviation": 8688,
      "raise_for_": 8689,
      "higher": 8690,
      "VALUE": 8691,
      "__version__": 8692,
      "Zip": 8693,
      "uled": 8694,
      "istic": 8695,
      "effective": 8696,
      ");": 8697,
      "mg": 8698,
      "rf": 8699,
      "ances": 8700,
      "json_data": 8701,
      "edit_": 8702,
      "Private": 8703,
      "slots": 8704,
      "VAR": 8705,
      "s_from": 8706,
      "primitive": 8707,
      "actual_": 8708,
      "looks": 8709,
      "Specify": 8710,
      "Has": 8711,
      "_param": 8712,
      "inc": 8713,
      "_cb": 8714,
      "call_": 8715,
      "Login": 8716,
      "olders": 8717,
      "import_module": 8718,
      "ATION_": 8719,
      "grouped": 8720,
      "_debug": 8721,
      "ities": 8722,
      "jump": 8723,
      "closest": 8724,
      "construct_": 8725,
      "Datetime": 8726,
      "spawn": 8727,
      "horizontal": 8728,
      "friendly": 8729,
      "har": 8730,
      "cepts": 8731,
      "correc": 8732,
      "Need": 8733,
      ":',": 8734,
      "Yield": 8735,
      "prop_": 8736,
      "ORD": 8737,
      "CD": 8738,
      "gres": 8739,
      "reserved": 8740,
      "lay_": 8741,
      "inspe": 8742,
      "wsgi": 8743,
      "uint8": 8744,
      "Fig": 8745,
      "contour": 8746,
      "(\"{}": 8747,
      "event_type": 8748,
      "MAX": 8749,
      "SOUR": 8750,
      "Short": 8751,
      "Unique": 8752,
      "virtualenv": 8753,
      "mimetype": 8754,
      "Counter": 8755,
      "/=": 8756,
      "Ga": 8757,
      "coord_": 8758,
      "vim": 8759,
      "prints": 8760,
      "declared": 8761,
      "Signature": 8762,
      "-+-+-+-+-+-+-+-+-+-+-+-+-+-+-+-+": 8763,
      "nomi": 8764,
      "beam": 8765,
      "Quanti": 8766,
      "product_": 8767,
      "CDF": 8768,
      "rsplit": 8769,
      "_rece": 8770,
      "Program": 8771,
      "COMP": 8772,
      "Stats": 8773,
      "Multiple": 8774,
      "dummy": 8775,
      "Cluster": 8776,
      "et_": 8777,
      "alert": 8778,
      "ambig": 8779,
      "smaller": 8780,
      "account_id": 8781,
      "Assessment": 8782,
      "_start_": 8783,
      "further": 8784,
      "nice": 8785,
      "t1": 8786,
      "_required": 8787,
      "markup": 8788,
      "Docker": 8789,
      "('')": 8790,
      "saving": 8791,
      "countered": 8792,
      "rmtree": 8793,
      "predicted": 8794,
      "Like": 8795,
      "LINE": 8796,
      "bold": 8797,
      "d2": 8798,
      "ctrl": 8799,
      "upon": 8800,
      "sus": 8801,
      "get_id": 8802,
      "ites": 8803,
      "access_key": 8804,
      "enable_": 8805,
      "quotes": 8806,
      "Registers": 8807,
      "Sec": 8808,
      "Then": 8809,
      "wrapped_": 8810,
      "Running": 8811,
      "AU": 8812,
      "spatial": 8813,
      "app_name": 8814,
      "campaign": 8815,
      "classname": 8816,
      "backend_": 8817,
      "_src": 8818,
      "block_size": 8819,
      "cked_": 8820,
      "file_obj": 8821,
      "Extension": 8822,
      "_task": 8823,
      "type_name": 8824,
      "obs_": 8825,
      "fullname": 8826,
      "ggle": 8827,
      "camera": 8828,
      "BB": 8829,
      "m1": 8830,
      "_repo": 8831,
      "Arti": 8832,
      "voltage": 8833,
      "inserted": 8834,
      "Global": 8835,
      "episode": 8836,
      "\"}": 8837,
      "Iss": 8838,
      "PL": 8839,
      "R_": 8840,
      "tolist": 8841,
      "module_": 8842,
      "_flu": 8843,
      "ATE_": 8844,
      "_on": 8845,
      "_cfg": 8846,
      "ippe": 8847,
      "located": 8848,
      "_slice": 8849,
      "DataArray": 8850,
      "ALI": 8851,
      "SyntaxError": 8852,
      "'})": 8853,
      "_element": 8854,
      "vents": 8855,
      "img_": 8856,
      "astropy": 8857,
      "ners": 8858,
      "zon": 8859,
      "album": 8860,
      "signific": 8861,
      "Collect": 8862,
      "Float": 8863,
      "velocity": 8864,
      "dp": 8865,
      "removes": 8866,
      "SV": 8867,
      "_convert_": 8868,
      "ane": 8869,
      "ipv4": 8870,
      "ipv6": 8871,
      "ATTR": 8872,
      "scaled": 8873,
      "migration": 8874,
      ":].": 8875,
      "_attributes": 8876,
      "Condi": 8877,
      "marked": 8878,
      "rectangle": 8879,
      "Memory": 8880,
      "vered": 8881,
      "Encryp": 8882,
      "ASE_": 8883,
      "populate": 8884,
      "validators": 8885,
      "KEN": 8886,
      "cnt": 8887,
      "pause": 8888,
      "int32": 8889,
      "scr": 8890,
      "updated_": 8891,
      "replic": 8892,
      "After": 8893,
      "assembly": 8894,
      "ceil": 8895,
      "bolic": 8896,
      "heads": 8897,
      "environment_": 8898,
      "supports_": 8899,
      "products": 8900,
      "DEFAULT": 8901,
      "Expression": 8902,
      "')))": 8903,
      "GS": 8904,
      "Space": 8905,
      "mn": 8906,
      "stuff": 8907,
      "stats_": 8908,
      "_rel": 8909,
      "...)": 8910,
      "Attr": 8911,
      "Bucket": 8912,
      "combination": 8913,
      "accuracy": 8914,
      "atio": 8915,
      "Ext": 8916,
      "help_": 8917,
      "plotting": 8918,
      "file_object": 8919,
      "Asset": 8920,
      "509": 8921,
      "api_core": 8922,
      "How": 8923,
      "deal": 8924,
      "exc_": 8925,
      "anging": 8926,
      "><": 8927,
      "_post": 8928,
      "dar": 8929,
      "y0": 8930,
      "peg": 8931,
      "corre": 8932,
      "Filename": 8933,
      "Track": 8934,
      "performance": 8935,
      "continuous": 8936,
      "coerce": 8937,
      "styles": 8938,
      "provider_": 8939,
      "whitelist": 8940,
      "Convenience": 8941,
      "EMA": 8942,
      "_no": 8943,
      "inventory": 8944,
      "s_in_": 8945,
      "initialization": 8946,
      "GraphQL": 8947,
      "masked": 8948,
      "lexer": 8949,
      "_categor": 8950,
      "princip": 8951,
      "wf": 8952,
      "tics": 8953,
      "refle": 8954,
      "Publish": 8955,
      "unexpected": 8956,
      "ign_": 8957,
      "directive": 8958,
      "Nodes": 8959,
      "STA": 8960,
      "configurations": 8961,
      "Push": 8962,
      "_of": 8963,
      "_report": 8964,
      "checker": 8965,
      "127": 8966,
      "Abstract": 8967,
      "_mask": 8968,
      "``:": 8969,
      "printer": 8970,
      "\":\"": 8971,
      "optimize": 8972,
      "CESS": 8973,
      "firmware": 8974,
      "Flask": 8975,
      "upstream": 8976,
      "intro": 8977,
      "specifies": 8978,
      "CODE": 8979,
      "dicator": 8980,
      "Sync": 8981,
      "PM": 8982,
      "polar": 8983,
      "...')": 8984,
      "expanded": 8985,
      "issuer": 8986,
      "raise_for_status": 8987,
      "HA": 8988,
      "_limit": 8989,
      "las": 8990,
      "celer": 8991,
      "upload_": 8992,
      "verified": 8993,
      "unders": 8994,
      "iled_": 8995,
      "websocket": 8996,
      "probabilities": 8997,
      "declaration": 8998,
      "={},": 8999,
      "Items": 9000,
      "defs": 9001,
      "shad": 9002,
      "heading": 9003,
      "worker_": 9004,
      "manually": 9005,
      "-----------": 9006,
      "collect_": 9007,
      "voice": 9008,
      "tification": 9009,
      "Validation": 9010,
      "ElementTree": 9011,
      "TEXT": 9012,
      "elapsed": 9013,
      "Lists": 9014,
      "fmt_": 9015,
      "dry_run": 9016,
      "_IN": 9017,
      "bt": 9018,
      "---------": 9019,
      "tmp_": 9020,
      "'-'": 9021,
      "ldap": 9022,
      "_as": 9023,
      "backends": 9024,
      "excluded": 9025,
      "rhs": 9026,
      "Java": 9027,
      "08": 9028,
      "_wrapper": 9029,
      "mag_": 9030,
      "ftp": 9031,
      "guest": 9032,
      "boto_": 9033,
      "date_time": 9034,
      "available_": 9035,
      "rendering": 9036,
      "_factory": 9037,
      "ds_": 9038,
      "l2": 9039,
      "atar": 9040,
      "log_file": 9041,
      "Lock": 9042,
      "clean_": 9043,
      "$',": 9044,
      ")')": 9045,
      "Pat": 9046,
      "division": 9047,
      "data_dir": 9048,
      "weight_": 9049,
      "_CONFI": 9050,
      "mac_": 9051,
      "preference": 9052,
      "mutations": 9053,
      "leaves": 9054,
      "an_": 9055,
      "resp_": 9056,
      "term_": 9057,
      "_dataset": 9058,
      "slices": 9059,
      "Title": 9060,
      "El": 9061,
      "cha": 9062,
      "formatted_": 9063,
      "URN": 9064,
      "managed": 9065,
      "/',": 9066,
      "_frames": 9067,
      "Rect": 9068,
      "_produ": 9069,
      "TimeSeries": 9070,
      "TED": 9071,
      "_write_": 9072,
      "jun": 9073,
      "matic": 9074,
      "colorbar": 9075,
      "...]": 9076,
      "TOKEN": 9077,
      "1234": 9078,
      "xyz": 9079,
      "builtin": 9080,
      "TAG": 9081,
      "allen": 9082,
      "debugging": 9083,
      "_bits": 9084,
      "feature_": 9085,
      "ConfigParser": 9086,
      "Fore": 9087,
      "76": 9088,
      "Agg": 9089,
      "secs": 9090,
      "coef": 9091,
      "pread": 9092,
      "Force": 9093,
      "appended": 9094,
      "kb": 9095,
      "sf": 9096,
      "conn_": 9097,
      "mini": 9098,
      "Compo": 9099,
      "_tokens": 9100,
      "error_msg": 9101,
      "strain": 9102,
      "guar": 9103,
      "little": 9104,
      "coefficient": 9105,
      "ascending": 9106,
      "Axes": 9107,
      "Segment": 9108,
      "'?": 9109,
      "r2": 9110,
      "boundaries": 9111,
      "legacy": 9112,
      "Del": 9113,
      "pn": 9114,
      "stable": 9115,
      "ATCH": 9116,
      "generates": 9117,
      "Writer": 9118,
      "progress_": 9119,
      ")**": 9120,
      "','.": 9121,
      "partial_": 9122,
      "destin": 9123,
      "assemble": 9124,
      "_remote": 9125,
      "++": 9126,
      "JW": 9127,
      "abc": 9128,
      "floating": 9129,
      "spacing": 9130,
      "proxies": 9131,
      "MENT": 9132,
      "Cha": 9133,
      "Uti": 9134,
      "_mapping": 9135,
      "mys": 9136,
      "heat": 9137,
      "collap": 9138,
      "locally": 9139,
      "created_": 9140,
      "Adap": 9141,
      "project_name": 9142,
      "protected": 9143,
      ">\"": 9144,
      "_thread": 9145,
      "ql_": 9146,
      "t2": 9147,
      "preview": 9148,
      "socket_": 9149,
      "floor": 9150,
      "utcnow": 9151,
      "FT": 9152,
      "arily": 9153,
      "chdir": 9154,
      "indexing": 9155,
      "Keep": 9156,
      "construction": 9157,
      "trees": 9158,
      "paragraph": 9159,
      "nb_": 9160,
      "deta": 9161,
      "signatures": 9162,
      "_states": 9163,
      "login_": 9164,
      "cmds": 9165,
      "encrypt": 9166,
      "Layout": 9167,
      "DecodeError": 9168,
      "Resolve": 9169,
      "Evaluate": 9170,
      "_location": 9171,
      "gered": 9172,
      "contract_": 9173,
      "Constructs": 9174,
      "Button": 9175,
      "Hy": 9176,
      "std_": 9177,
      "perms": 9178,
      "parent_id": 9179,
      "bands": 9180,
      "management": 9181,
      "Mongo": 9182,
      "alphabet": 9183,
      "mount_point": 9184,
      "came": 9185,
      "pseudo": 9186,
      "wan": 9187,
      "widths": 9188,
      "myminion": 9189,
      "Member": 9190,
      "cumulative": 9191,
      "circu": 9192,
      "XY": 9193,
      "_arg": 9194,
      "identical": 9195,
      "Struct": 9196,
      "ging_": 9197,
      "ox": 9198,
      "contexts": 9199,
      "()['": 9200,
      "tornado": 9201,
      "stops": 9202,
      "Statement": 9203,
      "Execut": 9204,
      "=[],": 9205,
      "composite": 9206,
      "Dou": 9207,
      "FIN": 9208,
      "had": 9209,
      "dists": 9210,
      "authors": 9211,
      "transformer": 9212,
      "Libr": 9213,
      "heart": 9214,
      "_bank": 9215,
      "deno": 9216,
      "providers": 9217,
      "spike": 9218,
      "Az": 9219,
      "Last": 9220,
      "MQ": 9221,
      "_of_": 9222,
      "cates": 9223,
      "board_": 9224,
      "corpus": 9225,
      "visit_": 9226,
      "det": 9227,
      "quee": 9228,
      "wavelength": 9229,
      "(',')": 9230,
      "printed": 9231,
      "Edit": 9232,
      "Msg": 9233,
      "craw": 9234,
      "unct": 9235,
      "truth": 9236,
      "combo": 9237,
      "patches": 9238,
      "processed_": 9239,
      "Avail": 9240,
      "CTION": 9241,
      "NULL": 9242,
      "egg": 9243,
      "shard_": 9244,
      "root_dir": 9245,
      "Distribu": 9246,
      "ible": 9247,
      "plic": 9248,
      "aler": 9249,
      "alarm": 9250,
      "job_": 9251,
      "executing": 9252,
      "exclusive": 9253,
      "advance": 9254,
      "highest": 9255,
      "dh": 9256,
      "membership": 9257,
      "embedded": 9258,
      ":]:": 9259,
      "_pattern": 9260,
      "gau": 9261,
      "ran": 9262,
      "xlim": 9263,
      "orted": 9264,
      "Relation": 9265,
      "coeffs": 9266,
      "_encode": 9267,
      "tg": 9268,
      "ulation": 9269,
      "blueprint": 9270,
      "belongs": 9271,
      "external_": 9272,
      "mazon": 9273,
      "filetype": 9274,
      "prefer": 9275,
      "scra": 9276,
      "curves": 9277,
      "extractor": 9278,
      "Elements": 9279,
      "vocation": 9280,
      "(``": 9281,
      "_parts": 9282,
      "transcript": 9283,
      "way_": 9284,
      "from_dict": 9285,
      "aker": 9286,
      "nested_": 9287,
      "vd": 9288,
      "ravel": 9289,
      "ablish": 9290,
      "meaning": 9291,
      "witter": 9292,
      "3_": 9293,
      "Bl": 9294,
      "Incre": 9295,
      "entifi": 9296,
      "connector": 9297,
      "second_": 9298,
      "MAG": 9299,
      "Starting": 9300,
      "Interrupt": 9301,
      "consumer_": 9302,
      "_registry": 9303,
      "Pix": 9304,
      "andi": 9305,
      "mpt": 9306,
      "get_value": 9307,
      "tag_name": 9308,
      "Factor": 9309,
      "Temporary": 9310,
      "STATE_": 9311,
      "Endpoint": 9312,
      "='.": 9313,
      "DP": 9314,
      "TOR": 9315,
      "\\\"": 9316,
      "hol": 9317,
      "ym": 9318,
      "chip": 9319,
      "tempor": 9320,
      "grain": 9321,
      "grammar": 9322,
      "tum": 9323,
      "ions": 9324,
      "motion": 9325,
      "figsize": 9326,
      "skipped": 9327,
      "Translate": 9328,
      "describe": 9329,
      "Sa": 9330,
      "ares": 9331,
      "pitch": 9332,
      "gram_": 9333,
      "_project": 9334,
      "failures": 9335,
      "assignments": 9336,
      "Active": 9337,
      "svg": 9338,
      "Dynam": 9339,
      "\"#": 9340,
      "ymo": 9341,
      "independent": 9342,
      "readlines": 9343,
      "ridge": 9344,
      "diagonal": 9345,
      "gives": 9346,
      "Define": 9347,
      "Termin": 9348,
      "FIELD": 9349,
      "Double": 9350,
      "hold": 9351,
      "kws": 9352,
      "However": 9353,
      "[('": 9354,
      "_service": 9355,
      "aws": 9356,
      "tas": 9357,
      "abs_": 9358,
      "opcode": 9359,
      "spans": 9360,
      "visited": 9361,
      "rotate": 9362,
      "Single": 9363,
      "_row": 9364,
      "gw": 9365,
      "nic": 9366,
      "()])": 9367,
      "file_type": 9368,
      "_refs": 9369,
      "matcher": 9370,
      "fixed_": 9371,
      "modifier": 9372,
      "}:{": 9373,
      "Gaussian": 9374,
      "'\",": 9375,
      "anim": 9376,
      "ulary": 9377,
      "group_name": 9378,
      "claim": 9379,
      "described": 9380,
      "'(": 9381,
      "Drop": 9382,
      "_server": 9383,
      "}')": 9384,
      "_candid": 9385,
      "_rec": 9386,
      "generating": 9387,
      "Grade": 9388,
      "Currently": 9389,
      "BytesIO": 9390,
      "Pac": 9391,
      "TABLE": 9392,
      "_properties": 9393,
      "ball": 9394,
      "lr": 9395,
      "}',": 9396,
      "amily": 9397,
      "backward": 9398,
      "answ": 9399,
      "zipfile": 9400,
      "tmp_dir": 9401,
      "polynomi": 9402,
      "taxon": 9403,
      "Train": 9404,
      "NN": 9405,
      "\\*": 9406,
      "poster": 9407,
      "funcs": 9408,
      "API_": 9409,
      "detection": 9410,
      "Cancel": 9411,
      "Fit": 9412,
      "sun": 9413,
      "('[": 9414,
      "paired": 9415,
      "Include": 9416,
      "signing": 9417,
      "crs": 9418,
      "8601": 9419,
      "Issue": 9420,
      "_resource": 9421,
      "dk": 9422,
      "ku": 9423,
      "md_": 9424,
      "subjects": 9425,
      "instructions": 9426,
      "Figure": 9427,
      "lopen": 9428,
      "\"%(": 9429,
      "produced": 9430,
      "Initial": 9431,
      "Pattern": 9432,
      "_page": 9433,
      "tokenize": 9434,
      "quadratic": 9435,
      "SCons": 9436,
      "_system": 9437,
      "lb": 9438,
      "y2": 9439,
      "atal": 9440,
      "codec": 9441,
      "reddit": 9442,
      "portion": 9443,
      "uplicate": 9444,
      "BE": 9445,
      "Elast": 9446,
      "_tags": 9447,
      "encountered": 9448,
      "unsigned": 9449,
      "ellip": 9450,
      "cls_": 9451,
      "subdomain": 9452,
      "optional_": 9453,
      "grains": 9454,
      "inherit": 9455,
      "UI": 9456,
      "_new": 9457,
      "pul": 9458,
      "ris": 9459,
      "wind": 9460,
      "uming": 9461,
      "_break": 9462,
      "ghts": 9463,
      "center_": 9464,
      "correspond": 9465,
      "Feed": 9466,
      "Ignore": 9467,
      "multiplier": 9468,
      "FE": 9469,
      "assist": 9470,
      "logits": 9471,
      "sampled": 9472,
      "Compile": 9473,
      "initializer": 9474,
      "rates": 9475,
      "gest_": 9476,
      "params_": 9477,
      "precation": 9478,
      "argument_": 9479,
      "traverse": 9480,
      "LIST": 9481,
      "emails": 9482,
      "interpreter": 9483,
      ")['": 9484,
      "tcp": 9485,
      "files_": 9486,
      "base_path": 9487,
      "Stand": 9488,
      "_urls": 9489,
      "SES": 9490,
      "connecting": 9491,
      "TEMPL": 9492,
      "Utility": 9493,
      "get_current_": 9494,
      "startup": 9495,
      "blacklist": 9496,
      "Dimension": 9497,
      ")\")": 9498,
      "Estim": 9499,
      "Mix": 9500,
      "nv": 9501,
      "sses": 9502,
      "ged_": 9503,
      "_snap": 9504,
      "=\"%": 9505,
      "gov": 9506,
      "Worker": 9507,
      "hazard": 9508,
      "_search": 9509,
      "nargs": 9510,
      "inel": 9511,
      "deserialize": 9512,
      "dio": 9513,
      "variation": 9514,
      "_sche": 9515,
      "distributions": 9516,
      "triggers": 9517,
      "Signal": 9518,
      "Produce": 9519,
      "Analy": 9520,
      "PR": 9521,
      "lvl": 9522,
      "stration": 9523,
      "quit": 9524,
      "_cert": 9525,
      "var_name": 9526,
      "2015": 9527,
      "calibration": 9528,
      "yy": 9529,
      "packets": 9530,
      "_indexes": 9531,
      "wildcard": 9532,
      "Cli": 9533,
      "ae": 9534,
      "quires": 9535,
      "func_name": 9536,
      "sum_": 9537,
      "2016": 9538,
      "supported_": 9539,
      "mirror": 9540,
      "HDF": 9541,
      "n1": 9542,
      "get_config": 9543,
      "long_": 9544,
      "effects": 9545,
      "xc": 9546,
      "urlopen": 9547,
      "``(": 9548,
      "Named": 9549,
      "n_features": 9550,
      "TO_": 9551,
      "Obtain": 9552,
      "render_": 9553,
      "Rou": 9554,
      "_conf": 9555,
      "aren": 9556,
      "tpl": 9557,
      "moves": 9558,
      "four": 9559,
      "izes": 9560,
      "registers": 9561,
      "NOT_": 9562,
      "libraries": 9563,
      "listeners": 9564,
      "recipient": 9565,
      "_addr": 9566,
      "['--": 9567,
      "Got": 9568,
      "TIME_": 9569,
      "ffff": 9570,
      "Public": 9571,
      "occurrence": 9572,
      "_xml": 9573,
      "classifier": 9574,
      "mixed": 9575,
      "!\"": 9576,
      "GRO": 9577,
      "prod": 9578,
      "Require": 9579,
      "poses": 9580,
      "shard": 9581,
      "app_id": 9582,
      "passwd": 9583,
      "Hook": 9584,
      "invoked": 9585,
      "_generate_": 9586,
      "ptime": 9587,
      "ylim": 9588,
      "heigh": 9589,
      "preferred": 9590,
      "multiprocessing": 9591,
      "escaped": 9592,
      "ctivity": 9593,
      "\"(": 9594,
      "512": 9595,
      "ram": 9596,
      "taking": 9597,
      "subtype": 9598,
      "subclasses": 9599,
      "disks": 9600,
      "Password": 9601,
      "ping_": 9602,
      "linspace": 9603,
      "locate": 9604,
      "processors": 9605,
      "internal_": 9606,
      "serializable": 9607,
      "Metric": 9608,
      "LAB": 9609,
      "_is": 9610,
      "_res": 9611,
      "_errors": 9612,
      "_style": 9613,
      "fobj": 9614,
      "repos": 9615,
      "\")[": 9616,
      "plural": 9617,
      "field_names": 9618,
      "pprint": 9619,
      "inject": 9620,
      "abstract": 9621,
      "intersect": 9622,
      "coro": 9623,
      "remainder": 9624,
      "Zero": 9625,
      "orn": 9626,
      "absent": 9627,
      "Nothing": 9628,
      "prime": 9629,
      "history_": 9630,
      "equals": 9631,
      "rollback": 9632,
      "Refresh": 9633,
      "Minimum": 9634,
      "Category": 9635,
      "uter": 9636,
      "}\",": 9637,
      "verification": 9638,
      "to_json": 9639,
      "after_": 9640,
      "_my_": 9641,
      "ClientError": 9642,
      "distinct": 9643,
      "ind_": 9644,
      "failed_": 9645,
      "control_": 9646,
      "integration": 9647,
      "Azure": 9648,
      "UDF": 9649,
      "h_": 9650,
      "plays": 9651,
      "new_value": 9652,
      "milliseconds": 9653,
      "PDB": 9654,
      "rest_": 9655,
      "ently": 9656,
      "shake": 9657,
      "affe": 9658,
      "pairwise": 9659,
      "decision": 9660,
      "contig": 9661,
      "Mask": 9662,
      "[{'": 9663,
      "fresh": 9664,
      "anz": 9665,
      "prepa": 9666,
      "modifiers": 9667,
      "UND": 9668,
      "triggered": 9669,
      "recipients": 9670,
      "guarante": 9671,
      "bf": 9672,
      "cdf": 9673,
      "lam": 9674,
      "xmin": 9675,
      "re_": 9676,
      "consen": 9677,
      "Retry": 9678,
      "get_data": 9679,
      "message_id": 9680,
      "traversal": 9681,
      "_branch": 9682,
      "ACH": 9683,
      "standard_": 9684,
      "installation": 9685,
      "a1": 9686,
      "dered_": 9687,
      "Init": 9688,
      "decim": 9689,
      "CIM": 9690,
      "rng": 9691,
      "password_": 9692,
      "Already": 9693,
      "velope": 9694,
      "EP": 9695,
      "Il": 9696,
      "xarray": 9697,
      "deca": 9698,
      "aspect": 9699,
      "dim_": 9700,
      "mpath": 9701,
      "temp_": 9702,
      "dbs": 9703,
      "closure": 9704,
      "sink": 9705,
      "Processing": 9706,
      "Properties": 9707,
      "Received": 9708,
      "Zone": 9709,
      "bill": 9710,
      "cb_": 9711,
      "_require": 9712,
      "user_agent": 9713,
      "reduced": 9714,
      "obtained": 9715,
      "Soft": 9716,
      "_port": 9717,
      "eli": 9718,
      "dirty": 9719,
      "discard": 9720,
      "creds": 9721,
      "sorting": 9722,
      "assumes": 9723,
      "exponent": 9724,
      "lazy": 9725,
      "pkg_resources": 9726,
      "06": 9727,
      "dup": 9728,
      "tively": 9729,
      "upy": 9730,
      "validated": 9731,
      ":'": 9732,
      "_0": 9733,
      "_execute": 9734,
      "hop": 9735,
      "uals": 9736,
      "s_like": 9737,
      "fault": 9738,
      "pheno": 9739,
      "_retries": 9740,
      "Provi": 9741,
      "api_url": 9742,
      "normal_": 9743,
      "bid": 9744,
      "``)": 9745,
      "pypi": 9746,
      "smoo": 9747,
      "_pb2": 9748,
      "Library": 9749,
      "Hi": 9750,
      "LY": 9751,
      "gates": 9752,
      "forum": 9753,
      "finder": 9754,
      "deletion": 9755,
      "matrix_": 9756,
      "HTTP_": 9757,
      "TY_": 9758,
      "stddev": 9759,
      "OptionParser": 9760,
      "applications": 9761,
      "omitted": 9762,
      "Linux": 9763,
      "NT": 9764,
      "_query_": 9765,
      "fn_": 9766,
      "ale": 9767,
      "implicit": 9768,
      "_sk": 9769,
      "framework": 9770,
      "Objects": 9771,
      "KeyboardInterrupt": 9772,
      "Site": 9773,
      "ai": 9774,
      "uous": 9775,
      "zmq": 9776,
      "community": 9777,
      "_filepath": 9778,
      "gran": 9779,
      "api_call": 9780,
      "print_help": 9781,
      "gradients": 9782,
      "consume": 9783,
      "hdf5": 9784,
      "discovery": 9785,
      "aug": 9786,
      "licit_": 9787,
      "LIMI": 9788,
      "operators": 9789,
      "numerical": 9790,
      "boto3": 9791,
      "Polygon": 9792,
      "_conn": 9793,
      "sector": 9794,
      "desk": 9795,
      "Supported": 9796,
      "mit_": 9797,
      "serv": 9798,
      "joined": 9799,
      "ON_": 9800,
      "repeated": 9801,
      "Origin": 9802,
      "Case": 9803,
      "lets": 9804,
      "Redirect": 9805,
      "_cu": 9806,
      "passphrase": 9807,
      "Compare": 9808,
      "IPv6": 9809,
      "aff4": 9810,
      "Quantity": 9811,
      "AME": 9812,
      "_extract_": 9813,
      "past": 9814,
[...]
